node {
  name: "global_step/Initializer/zeros"
  op: "Const"
  attr {
    key: "_class"
    value {
      list {
        s: "loc:@global_step"
      }
    }
  }
  attr {
    key: "_output_shapes"
    value {
      list {
        shape {
        }
      }
    }
  }
  attr {
    key: "dtype"
    value {
      type: DT_INT64
    }
  }
  attr {
    key: "value"
    value {
      tensor {
        dtype: DT_INT64
        tensor_shape {
        }
        int64_val: 0
      }
    }
  }
}
node {
  name: "global_step"
  op: "VariableV2"
  attr {
    key: "_class"
    value {
      list {
        s: "loc:@global_step"
      }
    }
  }
  attr {
    key: "_output_shapes"
    value {
      list {
        shape {
        }
      }
    }
  }
  attr {
    key: "container"
    value {
      s: ""
    }
  }
  attr {
    key: "dtype"
    value {
      type: DT_INT64
    }
  }
  attr {
    key: "shape"
    value {
      shape {
      }
    }
  }
  attr {
    key: "shared_name"
    value {
      s: ""
    }
  }
}
node {
  name: "global_step/Assign"
  op: "Assign"
  input: "global_step"
  input: "global_step/Initializer/zeros"
  attr {
    key: "T"
    value {
      type: DT_INT64
    }
  }
  attr {
    key: "_class"
    value {
      list {
        s: "loc:@global_step"
      }
    }
  }
  attr {
    key: "_output_shapes"
    value {
      list {
        shape {
        }
      }
    }
  }
  attr {
    key: "use_locking"
    value {
      b: true
    }
  }
  attr {
    key: "validate_shape"
    value {
      b: true
    }
  }
}
node {
  name: "global_step/read"
  op: "Identity"
  input: "global_step"
  attr {
    key: "T"
    value {
      type: DT_INT64
    }
  }
  attr {
    key: "_class"
    value {
      list {
        s: "loc:@global_step"
      }
    }
  }
  attr {
    key: "_output_shapes"
    value {
      list {
        shape {
        }
      }
    }
  }
}
node {
  name: "global_step/IsVariableInitialized"
  op: "IsVariableInitialized"
  input: "global_step"
  attr {
    key: "_class"
    value {
      list {
        s: "loc:@global_step"
      }
    }
  }
  attr {
    key: "_output_shapes"
    value {
      list {
        shape {
        }
      }
    }
  }
  attr {
    key: "dtype"
    value {
      type: DT_INT64
    }
  }
}
node {
  name: "global_step/cond/Switch"
  op: "Switch"
  input: "global_step/IsVariableInitialized"
  input: "global_step/IsVariableInitialized"
  attr {
    key: "T"
    value {
      type: DT_BOOL
    }
  }
  attr {
    key: "_output_shapes"
    value {
      list {
        shape {
        }
        shape {
        }
      }
    }
  }
}
node {
  name: "global_step/cond/switch_t"
  op: "Identity"
  input: "global_step/cond/Switch:1"
  attr {
    key: "T"
    value {
      type: DT_BOOL
    }
  }
  attr {
    key: "_output_shapes"
    value {
      list {
        shape {
        }
      }
    }
  }
}
node {
  name: "global_step/cond/switch_f"
  op: "Identity"
  input: "global_step/cond/Switch"
  attr {
    key: "T"
    value {
      type: DT_BOOL
    }
  }
  attr {
    key: "_output_shapes"
    value {
      list {
        shape {
        }
      }
    }
  }
}
node {
  name: "global_step/cond/pred_id"
  op: "Identity"
  input: "global_step/IsVariableInitialized"
  attr {
    key: "T"
    value {
      type: DT_BOOL
    }
  }
  attr {
    key: "_output_shapes"
    value {
      list {
        shape {
        }
      }
    }
  }
}
node {
  name: "global_step/cond/read"
  op: "Identity"
  input: "global_step/cond/read/Switch:1"
  attr {
    key: "T"
    value {
      type: DT_INT64
    }
  }
  attr {
    key: "_output_shapes"
    value {
      list {
        shape {
        }
      }
    }
  }
}
node {
  name: "global_step/cond/read/Switch"
  op: "RefSwitch"
  input: "global_step"
  input: "global_step/cond/pred_id"
  attr {
    key: "T"
    value {
      type: DT_INT64
    }
  }
  attr {
    key: "_class"
    value {
      list {
        s: "loc:@global_step"
      }
    }
  }
  attr {
    key: "_output_shapes"
    value {
      list {
        shape {
        }
        shape {
        }
      }
    }
  }
}
node {
  name: "global_step/cond/Switch_1"
  op: "Switch"
  input: "global_step/Initializer/zeros"
  input: "global_step/cond/pred_id"
  attr {
    key: "T"
    value {
      type: DT_INT64
    }
  }
  attr {
    key: "_class"
    value {
      list {
        s: "loc:@global_step"
      }
    }
  }
  attr {
    key: "_output_shapes"
    value {
      list {
        shape {
        }
        shape {
        }
      }
    }
  }
}
node {
  name: "global_step/cond/Merge"
  op: "Merge"
  input: "global_step/cond/Switch_1"
  input: "global_step/cond/read"
  attr {
    key: "N"
    value {
      i: 2
    }
  }
  attr {
    key: "T"
    value {
      type: DT_INT64
    }
  }
  attr {
    key: "_output_shapes"
    value {
      list {
        shape {
        }
        shape {
        }
      }
    }
  }
}
node {
  name: "global_step/add/y"
  op: "Const"
  attr {
    key: "_output_shapes"
    value {
      list {
        shape {
        }
      }
    }
  }
  attr {
    key: "dtype"
    value {
      type: DT_INT64
    }
  }
  attr {
    key: "value"
    value {
      tensor {
        dtype: DT_INT64
        tensor_shape {
        }
        int64_val: 0
      }
    }
  }
}
node {
  name: "global_step/add"
  op: "Add"
  input: "global_step/cond/Merge"
  input: "global_step/add/y"
  attr {
    key: "T"
    value {
      type: DT_INT64
    }
  }
  attr {
    key: "_output_shapes"
    value {
      list {
        shape {
        }
      }
    }
  }
}
node {
  name: "tensors/component_0"
  op: "Const"
  device: "/device:CPU:0"
  attr {
    key: "_output_shapes"
    value {
      list {
        shape {
          dim {
            size: 1168
          }
        }
      }
    }
  }
  attr {
    key: "dtype"
    value {
      type: DT_UINT8
    }
  }
  attr {
    key: "value"
    value {
      tensor {
        dtype: DT_UINT8
        tensor_shape {
          dim {
            size: 1168
          }
        }
        tensor_content: "\000\001\000\000\001\000\000\000\000\000\000\000\000\000\000\000\000\000\000\000\000\000\000\000\000\000\000\000\000\001\000\000\000\000\000\000\000\000\000\000\000\000\000\001\000\000\000\000\001\000\000\000\000\000\000\000\000\000\000\000\000\000\001\000\001\000\000\000\000\000\000\000\000\000\001\000\000\000\000\000\000\000\000\000\000\000\000\000\000\000\000\000\000\000\000\000\000\000\000\000\000\000\000\000\000\000\000\000\000\000\000\000\000\000\000\000\000\000\000\000\000\000\000\000\000\000\000\000\000\000\000\001\000\000\000\001\001\000\000\001\000\000\000\000\000\000\000\000\000\000\000\000\000\000\000\000\000\000\000\000\001\000\000\000\000\000\000\001\001\000\001\000\000\000\000\000\000\000\000\000\000\000\000\000\000\000\000\000\000\000\000\000\000\000\000\000\000\000\000\000\000\000\000\000\000\000\000\000\000\000\000\000\000\000\000\000\001\000\000\000\000\000\000\000\000\000\000\000\000\000\000\000\000\000\000\000\000\000\000\000\000\000\000\001\000\000\000\000\000\000\000\000\000\000\000\000\000\000\000\000\000\000\000\000\001\000\001\000\000\000\001\000\000\000\000\000\000\001\000\000\000\000\000\000\001\000\000\000\001\000\000\000\000\000\000\000\000\000\000\000\000\000\000\000\000\000\000\000\000\000\000\000\000\000\000\000\000\000\000\000\000\000\000\000\000\000\000\000\000\000\000\000\000\000\000\000\000\000\000\000\000\000\000\000\000\001\001\000\000\000\000\000\001\000\000\000\000\000\000\000\000\000\000\000\000\000\000\000\000\000\000\000\000\001\000\000\000\000\000\000\000\000\000\000\000\000\000\000\000\000\000\000\000\001\000\001\000\000\000\000\000\000\000\000\000\000\000\000\000\000\000\000\000\001\000\001\000\001\000\000\000\000\000\000\001\000\000\000\000\000\000\000\000\000\000\000\000\001\000\000\000\001\000\000\000\000\000\000\000\000\000\000\000\000\000\000\000\001\000\000\000\000\000\000\000\001\000\000\000\001\000\000\000\000\000\000\000\000\000\000\000\000\000\000\000\000\000\000\000\001\000\000\000\001\000\000\000\000\000\000\001\000\000\000\000\000\000\000\000\000\000\000\000\001\000\000\000\000\000\000\000\000\000\000\000\000\000\000\000\000\000\001\000\000\000\000\000\000\000\000\000\000\000\000\001\001\000\000\000\000\001\000\001\000\000\000\000\000\000\000\000\000\000\000\000\000\001\000\000\000\000\000\001\000\000\000\000\000\000\000\000\000\000\000\000\000\000\000\000\000\000\000\000\000\000\000\000\000\000\000\000\000\000\000\000\000\000\000\000\000\000\000\000\000\000\000\000\000\000\000\000\000\000\000\001\000\000\000\000\000\000\001\000\000\000\000\000\000\000\000\000\001\001\000\000\001\000\000\000\000\000\001\000\000\000\001\000\001\000\000\000\000\000\000\000\000\000\000\000\000\000\000\000\000\000\000\000\000\000\000\001\000\000\000\000\000\000\000\000\000\000\000\000\000\000\000\000\001\000\000\001\000\000\000\000\000\000\000\001\000\000\000\000\000\001\000\001\000\000\000\000\000\000\000\000\000\000\000\000\001\000\000\000\001\000\000\000\000\000\000\000\000\000\000\000\000\000\000\000\000\000\000\000\001\000\000\000\000\000\000\000\000\000\000\000\000\000\000\000\001\000\000\000\000\000\000\000\000\000\000\000\000\000\001\000\000\000\001\000\000\000\000\000\000\000\000\000\001\000\000\000\001\000\000\000\000\000\000\000\000\000\000\000\000\000\000\000\000\000\000\000\000\000\000\000\001\000\000\000\001\000\001\000\000\000\000\000\000\000\000\000\000\000\000\000\000\001\001\000\000\001\000\000\000\000\000\000\000\000\000\000\000\000\000\000\000\000\000\000\000\000\000\000\000\000\000\000\000\000\000\000\000\000\000\000\001\000\000\000\000\000\000\000\000\000\000\000\001\000\000\000\000\000\000\000\000\000\000\001\000\000\000\001\000\000\000\000\000\000\000\000\000\000\000\000\000\000\000\000\001\000\000\000\000\000\000\000\000\000\001\000\000\000\000\000\000\000\000\000\000\000\000\000\000\000\000\000\000\000\000\000\000\000\000\000\000\000\000\000\000\000\000\000\000\000\000\000\000\000\001\000\000\000\000\000\000\000\000\000\001\000\000\000\000\000\000\000\000\000\000\000\000\000\000\000\000\001\000\000\000\000\001\000\000\000\000\000\000\000\000\000\000\000\000\000\000\000\000\001\000\000\000\000\000\000\000\000\000\000\000\000\000\000\001\000\000\000\000\000\000\000\000\000\000\000\001\000\000\000\000\000\000\001\000\000\000\000\000\000\000\000\000\000\000\000\000\000\000\000\000\000\000\000\000\000\000\000\000\000\000\000\001\000\000\000\000\000\000\000\000\000\000\001\000\000\000\000\000\000\000\000\000\000\000\000\000\001\000\000\000\000\000\001\000\000\001\000\000\000\000\000\000\000\000\000\000\000\000\000\000\000\000\000\000\000\000\000\000\000\000\000\000\000\000\000\000\000\000\000\000\000\000\000\000\000\001\000\000"
      }
    }
  }
}
node {
  name: "tensors/component_1"
  op: "Const"
  device: "/device:CPU:0"
  attr {
    key: "_output_shapes"
    value {
      list {
        shape {
          dim {
            size: 1168
          }
        }
      }
    }
  }
  attr {
    key: "dtype"
    value {
      type: DT_UINT8
    }
  }
  attr {
    key: "value"
    value {
      tensor {
        dtype: DT_UINT8
        tensor_shape {
          dim {
            size: 1168
          }
        }
        tensor_content: "\000\000\000\000\000\000\000\000\000\000\000\000\000\000\000\000\000\000\000\000\000\000\000\000\000\000\000\000\000\000\001\000\000\000\000\000\000\000\000\000\000\000\000\000\000\000\000\000\000\000\000\000\000\000\000\000\000\000\000\000\000\000\000\000\000\000\000\000\000\000\000\000\000\000\000\000\000\000\000\000\000\001\000\001\000\000\000\000\000\000\000\000\000\000\000\000\000\000\000\000\000\000\000\000\000\000\000\000\000\000\000\000\000\000\000\000\000\000\000\000\000\000\000\000\000\000\000\000\000\000\000\000\000\000\000\000\000\000\000\000\000\000\000\000\000\000\000\000\000\000\001\000\000\000\000\000\000\000\000\000\000\000\000\000\000\000\000\000\000\000\000\000\000\000\000\000\000\000\000\000\000\000\000\000\000\000\000\000\000\000\000\000\000\000\000\000\000\000\000\000\000\000\000\000\000\000\000\000\000\000\000\000\000\000\000\000\000\000\000\000\000\000\000\000\000\000\000\000\000\000\000\000\000\000\000\000\000\000\000\000\000\000\000\000\000\000\000\000\000\000\000\000\000\001\000\000\000\000\000\000\000\000\000\000\000\000\000\000\000\000\000\000\000\000\000\000\000\000\000\000\000\000\000\000\000\000\000\001\000\000\000\000\000\000\001\000\000\000\000\000\000\000\000\000\000\000\000\000\000\000\000\000\000\000\000\000\000\000\000\000\000\000\000\000\000\000\000\000\000\000\000\000\000\000\000\000\000\000\000\000\000\000\000\000\000\000\000\000\000\000\000\000\000\000\000\000\000\000\000\000\000\000\000\000\000\000\000\000\000\000\000\000\000\000\000\000\000\000\000\000\000\000\000\000\000\000\000\000\000\000\000\000\000\000\000\000\000\000\000\000\000\000\000\000\000\000\000\000\000\000\000\000\000\000\000\000\000\000\000\000\000\000\000\000\000\000\000\000\000\000\000\000\000\000\000\000\000\000\000\000\000\000\000\000\000\000\000\000\000\000\000\000\000\000\000\000\000\000\000\000\000\000\000\000\000\000\000\000\000\000\000\000\000\000\000\000\000\000\000\000\000\000\000\000\000\000\000\000\000\000\000\000\000\000\000\000\000\000\000\000\000\000\000\000\000\000\000\000\000\000\000\000\000\000\001\000\000\000\000\001\000\000\000\000\000\000\000\000\000\000\000\000\000\000\000\000\000\000\000\000\000\000\000\000\000\000\000\000\000\000\000\000\000\000\000\000\000\000\000\000\000\000\000\000\000\000\000\000\000\000\000\000\000\000\000\000\000\000\000\000\000\000\000\000\000\000\000\000\000\000\000\000\000\000\000\000\000\001\000\000\000\000\000\000\000\000\000\000\000\000\000\000\000\000\000\001\000\000\000\000\001\000\000\000\000\000\000\000\000\000\000\000\000\000\000\000\000\000\000\000\000\000\000\000\001\000\000\000\000\000\000\000\000\000\000\000\000\000\000\000\000\000\000\000\000\000\000\000\000\000\000\000\000\000\000\000\000\000\000\000\000\000\000\000\000\000\000\000\000\000\000\000\000\000\000\000\000\000\000\000\000\000\000\000\000\000\000\000\000\000\000\000\000\000\000\000\000\000\000\000\000\000\000\000\000\000\000\000\000\000\000\000\000\000\000\000\000\000\000\000\000\000\000\000\000\000\000\000\000\000\000\000\001\000\000\000\000\000\000\000\000\000\000\000\000\000\000\000\000\000\000\000\000\000\000\000\000\000\000\000\000\000\000\000\000\000\000\000\000\000\000\000\000\000\000\000\000\000\000\000\001\000\000\000\000\000\000\000\000\000\000\000\000\000\000\000\000\000\000\000\000\000\000\000\000\000\000\000\000\000\001\000\000\000\000\000\000\000\000\000\000\000\000\000\000\000\000\000\000\000\000\000\000\000\000\000\000\000\000\000\000\000\000\000\000\000\000\000\000\000\000\000\000\000\000\000\000\000\001\000\000\001\000\000\000\000\000\000\000\000\000\000\000\000\000\000\000\000\000\000\000\000\000\000\000\000\000\000\000\000\000\000\000\000\000\000\000\000\000\000\000\000\000\000\000\000\000\000\000\000\000\000\000\000\000\000\000\000\000\000\000\000\000\000\000\000\000\000\000\000\000\000\001\000\000\000\000\001\000\000\000\000\000\000\000\000\000\000\000\000\000\000\000\000\000\000\000\000\000\000\000\000\000\000\000\000\000\001\000\000\000\000\000\000\000\000\000\000\000\000\000\000\000\000\000\001\000\001\000\000\000\000\000\000\000\000\000\000\000\000\000\001\000\000\000\000\000\000\000\000\000\000\000\000\000\000\000\000\000\000\000\000\000\000\000\000\000\000\000\000\000\000\000\000\000\000\000\000\000\000\000\000\000\000\000\000\000\000\000\000\000\000\000\000\000\000\000\000\000\000\001\000\000\000\000\000\000\000\001\000\000\000\000\000\000\000\000\000\000\000\000\000\000\000\000\000\000\000\000\000\000\000\000\000\000\000\000\000\000\000\000\000\000\000\000\000\000\000\000\000\000\000\000\000\000\000\000\000\000\000\000\000\000\000\000\000\000\000\000\000\000\000\000\000\000\000\000\000\000\000\000\000\000\000\000\000\000\001"
      }
    }
  }
}
node {
  name: "tensors/component_2"
  op: "Const"
  device: "/device:CPU:0"
  attr {
    key: "_output_shapes"
    value {
      list {
        shape {
          dim {
            size: 1168
          }
        }
      }
    }
  }
  attr {
    key: "dtype"
    value {
      type: DT_UINT8
    }
  }
  attr {
    key: "value"
    value {
      tensor {
        dtype: DT_UINT8
        tensor_shape {
          dim {
            size: 1168
          }
        }
        tensor_content: "\000\000\000\000\000\001\000\001\001\000\000\000\000\001\001\000\001\000\000\001\000\001\001\000\001\001\001\000\001\000\000\001\000\000\001\000\000\001\001\000\000\001\000\000\000\000\000\000\000\000\000\000\001\001\001\001\001\001\000\000\000\000\000\001\000\000\000\001\001\001\000\000\000\000\000\001\001\001\000\000\000\000\000\000\000\000\001\001\001\001\000\000\000\000\000\001\000\001\001\001\001\001\001\000\001\000\000\001\001\001\000\001\000\000\001\000\000\000\000\001\001\001\001\000\001\000\001\000\001\001\001\000\001\000\000\000\000\001\001\000\001\001\001\000\000\000\001\001\001\000\000\000\000\000\000\001\001\000\000\000\000\000\001\000\000\000\001\000\000\000\000\000\000\001\001\000\000\001\000\001\000\000\000\000\001\000\001\001\001\000\000\000\000\000\001\000\001\000\001\000\001\001\000\001\001\000\001\000\000\000\001\000\000\001\001\001\000\000\000\000\000\001\001\000\001\000\000\000\000\000\000\001\000\000\001\000\001\001\001\001\000\001\001\000\000\001\001\001\001\000\001\001\000\000\000\001\000\000\001\001\001\001\000\001\000\001\000\001\000\001\000\001\001\001\000\000\001\000\000\000\001\001\001\000\000\000\001\000\000\001\000\000\000\001\000\001\000\000\001\000\001\001\000\000\001\000\000\001\001\000\000\001\000\000\000\001\001\001\001\000\001\000\000\000\001\000\001\001\000\000\001\001\000\001\001\000\000\000\000\001\001\000\000\000\001\000\000\000\000\000\000\001\000\001\001\000\000\000\001\001\000\001\001\001\000\001\000\000\000\000\000\001\000\000\000\001\001\001\000\000\000\000\001\000\000\001\000\000\001\000\000\000\001\000\000\000\000\000\001\000\001\001\000\001\000\000\000\000\000\001\001\001\000\000\000\000\000\000\001\000\001\001\001\000\000\000\001\001\001\001\000\000\001\000\000\001\000\000\000\001\001\000\001\000\001\000\001\001\000\001\000\000\000\000\000\001\001\000\001\000\000\000\000\001\001\000\001\001\000\000\001\000\001\000\001\001\000\000\000\001\000\000\000\001\001\000\001\000\001\000\001\001\001\000\000\001\001\000\000\001\000\000\000\000\000\000\001\000\001\000\001\000\000\000\000\000\001\000\001\000\000\001\001\001\001\000\000\001\001\001\001\000\001\000\001\000\001\000\000\000\000\000\001\001\000\000\000\001\000\000\000\000\000\000\000\001\000\001\000\001\001\000\000\000\001\000\000\001\001\000\001\000\000\000\000\000\001\000\001\001\000\001\001\001\000\000\001\001\001\001\000\000\000\000\000\000\001\000\001\001\001\001\000\001\001\000\000\001\000\000\001\000\001\001\001\000\000\000\000\000\000\000\000\001\000\000\000\001\000\000\000\000\001\001\001\001\001\000\000\001\001\000\000\001\000\000\000\000\001\000\000\000\001\001\001\000\001\000\000\000\000\000\000\001\001\000\001\000\000\001\001\001\001\000\001\001\001\001\001\000\000\000\001\001\000\001\001\001\000\000\001\001\001\000\001\001\001\000\001\001\000\000\001\000\000\001\001\000\000\000\000\000\001\000\000\000\000\001\000\001\001\000\000\000\001\001\000\000\001\000\000\000\001\000\000\001\000\000\000\000\000\001\000\000\001\001\001\001\000\000\001\001\000\000\001\001\000\001\001\001\000\000\000\001\001\000\001\001\001\000\000\001\000\000\001\000\000\001\000\000\001\001\001\000\000\000\000\000\000\001\000\000\000\001\000\001\000\000\001\000\000\000\001\000\001\001\001\001\001\001\000\001\001\000\000\001\000\001\001\001\001\000\001\000\001\000\001\001\000\000\000\000\001\000\000\001\000\001\000\001\000\000\001\000\001\000\000\000\001\000\000\001\001\000\000\000\000\000\001\001\000\001\000\000\001\000\000\000\001\001\000\000\001\001\001\000\000\000\000\001\000\000\001\001\000\000\001\000\000\001\001\000\000\000\001\001\000\000\001\001\000\000\000\001\000\000\000\001\000\001\000\001\000\000\000\000\000\000\000\000\001\000\001\001\001\001\000\000\001\000\000\000\001\000\000\001\001\000\001\000\001\000\000\001\000\000\000\000\001\000\001\001\000\000\001\001\000\000\001\001\000\001\000\001\001\000\001\000\000\001\000\001\000\000\001\000\000\000\000\000\001\000\000\000\001\001\000\000\000\000\001\001\000\001\001\000\001\000\000\000\000\000\000\000\000\000\000\000\001\000\000\000\001\000\001\000\001\000\000\000\001\000\001\000\000\001\001\000\000\000\001\001\000\000\001\001\001\000\000\001\000\000\001\000\001\001\000\000\001\000\001\001\001\001\000\000\000\001\001\000\000\000\000\000\000\001\001\000\000\000\001\000\001\001\000\000\000\001\001\000\000\000\001\000\000\000\000\000\000\001\001\000\000\000\000\000\001\000\000\000\000\000\000\001\000\000\001\000\001\001\001\000\001\000\001\000\000\001\001\000\001\001\000\000\001\000\001\001\001\001\001\000\001\000\001\001\000\001\000\001\000\000\001\001\000\000\000\000\000\001\001\000\000\000\000\001\001\001\001\001\000\001\001\000\001\000\000\000"
      }
    }
  }
}
node {
  name: "tensors/component_3"
  op: "Const"
  device: "/device:CPU:0"
  attr {
    key: "_output_shapes"
    value {
      list {
        shape {
          dim {
            size: 1168
          }
        }
      }
    }
  }
  attr {
    key: "dtype"
    value {
      type: DT_UINT8
    }
  }
  attr {
    key: "value"
    value {
      tensor {
        dtype: DT_UINT8
        tensor_shape {
          dim {
            size: 1168
          }
        }
        tensor_content: "\000\000\000\000\000\000\000\000\000\000\000\000\000\000\000\000\000\000\000\000\000\000\000\000\000\000\000\000\000\000\000\000\000\000\000\000\000\000\000\001\000\000\000\000\000\000\000\000\000\000\000\000\000\000\000\000\000\000\000\001\000\000\000\000\000\000\000\000\000\000\001\000\000\001\000\000\000\000\000\000\000\000\000\000\000\000\000\000\000\000\000\000\000\000\000\000\000\000\000\000\000\000\000\000\000\000\000\000\000\000\000\000\000\000\000\000\000\000\001\000\000\000\000\000\000\000\000\000\000\000\000\000\000\000\000\000\000\000\000\000\000\000\000\000\000\000\000\000\000\000\000\000\000\000\000\000\000\000\000\000\000\000\000\000\000\000\000\000\000\000\000\000\000\000\000\001\000\000\000\000\000\000\000\000\000\000\000\000\000\000\000\000\000\000\000\000\000\000\000\000\000\000\000\000\000\000\000\000\000\000\000\000\000\000\000\000\000\000\000\001\000\000\000\000\000\000\000\000\000\000\001\000\000\000\000\000\000\000\000\000\000\000\000\000\000\000\000\000\000\000\000\000\000\000\000\000\000\000\000\000\000\000\000\000\000\000\000\000\000\000\000\000\000\000\001\000\000\000\000\000\000\000\000\000\000\000\000\000\000\000\000\000\000\000\000\000\000\000\000\000\000\000\000\000\000\000\000\000\000\000\000\000\000\000\000\000\000\000\000\001\000\000\000\000\000\000\000\000\000\000\000\000\000\000\000\000\000\000\000\000\000\000\000\000\000\000\000\000\000\000\000\000\000\000\000\000\000\000\000\000\000\000\000\000\000\000\000\000\000\000\000\000\000\000\000\000\000\000\000\000\000\000\000\000\000\000\000\000\000\000\000\001\000\000\000\000\000\000\000\000\000\000\000\000\000\000\000\000\000\000\000\000\000\000\000\000\000\000\000\000\000\000\000\000\000\000\000\000\000\000\000\000\000\000\000\000\000\000\000\000\000\000\000\000\000\000\000\000\000\000\000\000\000\000\000\000\000\000\000\000\000\000\000\000\000\000\000\000\000\000\000\001\000\000\000\000\000\000\000\000\000\000\000\000\000\000\000\000\000\000\000\000\000\000\000\000\000\000\000\000\000\000\000\000\000\000\000\000\000\000\000\000\000\000\000\000\000\000\000\000\000\000\000\000\000\000\000\000\000\000\000\000\000\000\000\000\000\000\000\000\001\000\000\000\000\000\000\000\000\000\000\000\000\000\000\000\001\000\000\000\000\000\000\000\000\000\000\000\000\000\000\001\000\000\000\000\000\000\000\000\000\000\000\000\000\000\000\000\000\000\001\001\000\000\000\000\000\000\000\000\000\000\000\000\000\000\000\000\000\000\000\000\000\000\000\000\000\000\000\000\000\001\000\000\000\000\000\000\000\000\000\000\000\000\000\000\000\000\000\000\000\000\000\000\000\000\000\000\000\000\000\000\000\000\000\000\000\000\000\000\000\000\001\000\000\000\000\000\000\000\000\000\000\000\000\000\000\000\000\001\000\000\000\000\000\000\000\000\000\000\000\000\000\000\000\000\000\000\000\000\000\000\000\000\000\000\000\000\000\000\000\001\000\000\000\000\000\000\000\000\000\000\000\000\000\000\001\000\000\000\000\000\000\000\000\000\000\000\000\000\000\000\000\000\000\000\000\000\000\000\000\000\000\000\000\000\000\000\000\000\000\000\000\000\000\000\000\000\000\000\000\000\000\000\000\000\000\000\000\000\000\000\000\000\000\000\000\000\000\000\000\000\000\000\000\000\000\000\000\000\000\000\000\000\000\000\000\000\000\000\000\000\000\000\000\000\000\000\000\000\000\000\000\000\000\000\000\000\000\000\000\000\000\001\000\000\000\000\000\000\000\000\000\000\000\000\000\000\000\000\000\000\000\000\000\000\000\000\000\000\000\000\000\000\000\000\000\000\000\000\000\000\000\000\000\000\001\001\000\000\000\000\000\000\000\000\000\000\000\000\000\000\000\000\000\000\000\000\000\000\000\000\000\000\000\000\000\000\000\000\000\000\000\000\000\000\000\000\000\000\000\000\000\000\000\000\000\000\000\000\000\000\000\000\000\000\000\000\000\000\000\000\000\000\000\000\000\000\000\000\000\000\000\000\000\000\000\000\000\000\000\000\000\000\000\000\000\000\000\000\000\000\000\000\000\000\000\001\000\000\000\000\000\000\000\000\000\000\000\000\000\000\000\000\000\000\000\000\001\000\000\000\000\000\000\000\000\000\000\000\000\000\000\000\000\000\000\000\000\000\000\000\000\000\000\000\000\000\000\000\000\000\000\000\000\000\000\000\000\000\000\000\000\000\000\000\000\000\000\000\000\000\000\000\000\000\000\000\000\001\000\000\000\000\000\000\000\000\000\000\000\000\000\000\000\000\000\000\000\000\000\000\000\000\000\000\000\000\000\000\000\000\000\000\000\000\000\000\000\000\000\000\000\000\000\000\000\000\000\000\000\000\000\000\000\000\000\000\000\000\000\000\000\000\000\000\000\000\000\000\000\000\000\000\000\000\000\000\000\000\000\000\000\000\000\001\000\000\000\000\000\000\000\000\001\000\000\000\000\000\000\000\000\000\000\000\000\000"
      }
    }
  }
}
node {
  name: "tensors/component_4"
  op: "Const"
  device: "/device:CPU:0"
  attr {
    key: "_output_shapes"
    value {
      list {
        shape {
          dim {
            size: 1168
          }
        }
      }
    }
  }
  attr {
    key: "dtype"
    value {
      type: DT_UINT8
    }
  }
  attr {
    key: "value"
    value {
      tensor {
        dtype: DT_UINT8
        tensor_shape {
          dim {
            size: 1168
          }
        }
        tensor_content: "\001\000\001\001\000\000\001\000\000\001\001\001\001\000\000\001\000\001\001\000\001\000\000\001\000\000\000\001\000\000\000\000\001\001\000\001\001\000\000\000\001\000\001\000\001\001\001\001\000\001\001\001\000\000\000\000\000\000\001\000\001\001\000\000\000\001\001\000\000\000\000\001\001\000\000\000\000\000\001\001\001\000\001\000\001\001\000\000\000\000\001\001\001\001\001\000\001\000\000\000\000\000\000\001\000\001\001\000\000\000\001\000\001\001\000\001\001\001\000\000\000\000\000\001\000\001\000\001\000\000\000\000\000\001\001\000\000\000\000\000\000\000\000\001\001\001\000\000\000\001\000\001\001\001\001\000\000\001\001\001\000\001\000\001\001\001\000\000\000\001\000\001\001\000\000\000\001\000\001\000\001\001\001\001\000\001\000\000\000\001\001\001\001\001\000\001\000\001\000\001\000\000\001\000\000\001\000\001\001\001\000\001\001\000\000\000\000\001\001\000\001\000\000\001\000\001\001\001\001\001\000\000\001\001\000\001\000\000\000\000\001\000\000\000\001\000\000\000\000\001\000\000\001\000\001\000\001\001\000\000\000\000\001\000\000\000\000\000\001\000\000\000\000\000\000\001\000\000\001\001\000\000\000\001\000\001\000\000\000\000\001\001\001\000\000\000\001\001\000\001\000\000\001\001\000\001\001\000\000\001\001\000\001\001\001\000\000\000\000\000\000\001\001\001\000\001\000\000\001\001\000\000\001\000\000\001\001\001\001\000\000\001\001\001\000\000\000\001\001\001\001\000\000\000\000\001\001\001\000\000\001\000\000\000\001\000\001\001\001\001\001\000\001\000\001\000\000\000\001\001\001\001\000\001\001\000\001\001\000\001\001\000\000\000\001\000\001\001\000\001\000\000\001\000\001\001\001\001\001\000\000\000\001\000\001\000\001\000\000\001\000\000\000\001\000\001\000\000\000\000\001\001\000\001\001\000\001\000\001\000\000\000\000\001\000\001\000\000\001\000\001\001\001\001\001\000\000\000\000\001\001\001\001\000\000\000\000\000\001\000\000\000\000\001\000\000\001\001\001\000\001\001\001\000\000\001\000\001\000\000\000\000\000\000\001\000\000\001\001\000\000\001\001\001\001\001\000\001\000\001\000\001\001\000\000\001\000\001\000\000\001\000\000\000\000\001\001\000\000\000\000\000\000\001\000\001\000\001\001\001\000\001\000\000\000\000\001\000\001\001\000\001\000\001\001\000\000\000\001\000\000\001\001\001\000\001\000\000\000\001\000\000\000\001\001\001\000\001\000\000\001\000\000\000\001\001\000\000\000\000\000\000\001\001\001\001\000\000\000\000\000\000\001\000\000\001\001\000\001\001\000\001\000\000\000\000\001\001\001\001\000\000\001\000\000\001\001\000\001\001\001\000\000\000\000\000\000\001\001\000\000\000\000\000\000\000\001\001\000\001\001\000\000\000\000\000\000\000\001\001\001\001\000\000\000\001\000\001\001\000\000\000\000\001\000\000\000\000\000\000\000\001\000\000\001\000\000\000\001\001\000\000\000\001\000\000\000\000\000\000\000\001\000\001\001\000\000\001\000\001\001\000\000\001\000\001\000\000\001\000\000\001\001\001\000\000\000\001\000\000\001\001\000\000\001\000\001\001\001\001\001\000\001\001\000\000\000\000\001\001\000\000\000\000\000\000\001\000\000\000\001\001\001\000\000\001\000\000\000\000\001\000\001\001\000\001\001\000\001\001\000\000\000\000\001\001\001\000\001\000\001\001\001\000\001\000\001\000\000\001\000\000\000\001\000\000\000\000\000\000\001\000\000\001\001\000\001\000\000\000\000\001\000\001\000\000\000\000\001\000\000\000\000\000\001\000\001\000\001\000\001\001\000\001\000\001\000\000\000\001\000\000\000\001\001\001\001\001\000\000\001\000\001\001\000\001\001\001\000\000\001\001\000\000\000\001\000\000\000\000\001\000\000\000\001\000\000\001\001\000\000\001\001\001\000\000\001\000\000\000\001\001\001\000\001\001\001\000\000\000\001\000\000\001\001\001\001\001\001\001\000\001\000\000\000\000\001\001\000\000\001\001\000\001\001\000\000\001\000\000\000\001\001\000\001\001\001\001\000\001\000\000\000\001\000\000\001\000\000\000\001\000\001\000\000\001\000\001\001\000\001\000\001\001\000\001\001\000\001\000\000\001\001\001\000\000\001\000\001\000\000\000\001\000\000\001\000\001\000\001\001\001\001\001\001\000\000\000\000\001\001\000\000\001\000\001\000\001\001\001\000\000\000\001\001\000\000\001\000\001\000\000\001\001\000\000\000\001\001\000\001\001\000\000\000\000\001\001\000\001\000\000\000\000\001\000\001\000\000\000\001\001\000\001\001\000\000\001\001\001\000\001\000\000\001\001\001\000\000\001\000\001\000\001\001\001\001\001\000\000\000\000\001\001\001\001\000\001\001\001\001\001\000\000\001\001\000\001\000\000\000\001\000\001\000\001\000\000\000\001\000\000\000\001\000\000\000\000\000\000\000\001\000\001\000\000\001\000\001\000\001\001\000\000\001\000\001\001\001\000\000\001\001\001\000\000\000\000\000\000\001\000\000\001\000\000\001\000"
      }
    }
  }
}
node {
  name: "tensors/component_5"
  op: "Const"
  device: "/device:CPU:0"
  attr {
    key: "_output_shapes"
    value {
      list {
        shape {
          dim {
            size: 1168
          }
        }
      }
    }
  }
  attr {
    key: "dtype"
    value {
      type: DT_DOUBLE
    }
  }
  attr {
    key: "value"
    value {
      tensor {
        dtype: DT_DOUBLE
        tensor_shape {
          dim {
            size: 1168
          }
        }
        tensor_content: "6\211\230G9i\360\277p\331\334\237VC\351?6\211\230G9i\360\277p\331\334\237VC\351?p\331\334\237VC\351?6\211\230G9i\360\2776\211\230G9i\360\277p\331\334\237VC\351?6\211\230G9i\360\2776\211\230G9i\360\277p\331\334\237VC\351?6\211\230G9i\360\2776\211\230G9i\360\277p\331\334\237VC\351?p\331\334\237VC\351?6\211\230G9i\360\277p\331\334\237VC\351?6\211\230G9i\360\2776\211\230G9i\360\277p\331\334\237VC\351?p\331\334\237VC\351?p\331\334\237VC\351?p\331\334\237VC\351?6\211\230G9i\360\277p\331\334\237VC\351?p\331\334\237VC\351?p\331\334\237VC\351?6\211\230G9i\360\277p\331\334\237VC\351?p\331\334\237VC\351?6\211\230G9i\360\277p\331\334\237VC\351?S\261\272\363G\326\004@6\211\230G9i\360\277p\331\334\237VC\351?6\211\230G9i\360\2776\211\230G9i\360\277p\331\334\237VC\351?p\331\334\237VC\351?6\211\230G9i\360\2776\211\230G9i\360\277p\331\334\237VC\351?6\211\230G9i\360\277p\331\334\237VC\351?6\211\230G9i\360\277p\331\334\237VC\351?6\211\230G9i\360\2776\211\230G9i\360\277p\331\334\237VC\351?6\211\230G9i\360\2776\211\230G9i\360\277p\331\334\237VC\351?6\211\230G9i\360\277p\331\334\237VC\351?6\211\230G9i\360\277p\331\334\237VC\351?p\331\334\237VC\351?p\331\334\237VC\351?6\211\230G9i\360\2776\211\230G9i\360\2776\211\230G9i\360\2776\211\230G9i\360\277p\331\334\237VC\351?p\331\334\237VC\351?p\331\334\237VC\351?p\331\334\237VC\351?6\211\230G9i\360\277p\331\334\237VC\351?6\211\230G9i\360\277p\331\334\237VC\351?p\331\334\237VC\351?6\211\230G9i\360\2776\211\230G9i\360\277p\331\334\237VC\351?p\331\334\237VC\351?6\211\230G9i\360\277p\331\334\237VC\351?p\331\334\237VC\351?6\211\230G9i\360\2776\211\230G9i\360\2776\211\230G9i\360\2776\211\230G9i\360\2776\211\230G9i\360\2776\211\230G9i\360\2776\211\230G9i\360\2776\211\230G9i\360\277p\331\334\237VC\351?6\211\230G9i\360\2776\211\230G9i\360\277p\331\334\237VC\351?6\211\230G9i\360\277p\331\334\237VC\351?6\211\230G9i\360\277p\331\334\237VC\351?p\331\334\237VC\351?p\331\334\237VC\351?p\331\334\237VC\351?p\331\334\237VC\351?p\331\334\237VC\351?p\331\334\237VC\351?p\331\334\237VC\351?p\331\334\237VC\351?p\331\334\237VC\351?6\211\230G9i\360\2776\211\230G9i\360\2776\211\230G9i\360\2776\211\230G9i\360\277p\331\334\237VC\351?6\211\230G9i\360\2776\211\230G9i\360\2776\211\230G9i\360\277p\331\334\237VC\351?6\211\230G9i\360\2776\211\230G9i\360\277p\331\334\237VC\351?6\211\230G9i\360\2776\211\230G9i\360\2776\211\230G9i\360\277p\331\334\237VC\351?p\331\334\237VC\351?6\211\230G9i\360\2776\211\230G9i\360\277p\331\334\237VC\351?6\211\230G9i\360\277p\331\334\237VC\351?6\211\230G9i\360\277p\331\334\237VC\351?6\211\230G9i\360\2776\211\230G9i\360\277p\331\334\237VC\351?p\331\334\237VC\351?p\331\334\237VC\351?p\331\334\237VC\351?6\211\230G9i\360\277\223\277\217\357\016\272\006\300p\331\334\237VC\351?6\211\230G9i\360\2776\211\230G9i\360\277p\331\334\237VC\351?S\261\272\363G\326\004@p\331\334\237VC\351?6\211\230G9i\360\277p\331\334\237VC\351?p\331\334\237VC\351?6\211\230G9i\360\2776\211\230G9i\360\2776\211\230G9i\360\277p\331\334\237VC\351?6\211\230G9i\360\2776\211\230G9i\360\2776\211\230G9i\360\2776\211\230G9i\360\277S\261\272\363G\326\004@p\331\334\237VC\351?6\211\230G9i\360\277p\331\334\237VC\351?\223\277\217\357\016\272\006\3006\211\230G9i\360\2776\211\230G9i\360\2776\211\230G9i\360\277p\331\334\237VC\351?\223\277\217\357\016\272\006\300p\331\334\237VC\351?6\211\230G9i\360\2776\211\230G9i\360\277p\331\334\237VC\351?p\331\334\237VC\351?p\331\334\237VC\351?S\261\272\363G\326\004@p\331\334\237VC\351?p\331\334\237VC\351?6\211\230G9i\360\277p\331\334\237VC\351?p\331\334\237VC\351?p\331\334\237VC\351?p\331\334\237VC\351?6\211\230G9i\360\277p\331\334\237VC\351?6\211\230G9i\360\277p\331\334\237VC\351?p\331\334\237VC\351?6\211\230G9i\360\2776\211\230G9i\360\2776\211\230G9i\360\277p\331\334\237VC\351?p\331\334\237VC\351?p\331\334\237VC\351?p\331\334\237VC\351?p\331\334\237VC\351?6\211\230G9i\360\2776\211\230G9i\360\2776\211\230G9i\360\2776\211\230G9i\360\2776\211\230G9i\360\277p\331\334\237VC\351?S\261\272\363G\326\004@6\211\230G9i\360\2776\211\230G9i\360\277p\331\334\237VC\351?6\211\230G9i\360\277p\331\334\237VC\351?p\331\334\237VC\351?6\211\230G9i\360\277p\331\334\237VC\351?p\331\334\237VC\351?p\331\334\237VC\351?p\331\334\237VC\351?6\211\230G9i\360\2776\211\230G9i\360\2776\211\230G9i\360\277p\331\334\237VC\351?6\211\230G9i\360\2776\211\230G9i\360\277p\331\334\237VC\351?6\211\230G9i\360\277p\331\334\237VC\351?\223\277\217\357\016\272\006\3006\211\230G9i\360\2776\211\230G9i\360\277p\331\334\237VC\351?6\211\230G9i\360\277p\331\334\237VC\351?p\331\334\237VC\351?6\211\230G9i\360\277p\331\334\237VC\351?6\211\230G9i\360\2776\211\230G9i\360\277p\331\334\237VC\351?6\211\230G9i\360\2776\211\230G9i\360\2776\211\230G9i\360\277p\331\334\237VC\351?6\211\230G9i\360\2776\211\230G9i\360\277p\331\334\237VC\351?6\211\230G9i\360\277p\331\334\237VC\351?6\211\230G9i\360\277p\331\334\237VC\351?p\331\334\237VC\351?6\211\230G9i\360\277p\331\334\237VC\351?p\331\334\237VC\351?S\261\272\363G\326\004@p\331\334\237VC\351?6\211\230G9i\360\2776\211\230G9i\360\277p\331\334\237VC\351?6\211\230G9i\360\2776\211\230G9i\360\277p\331\334\237VC\351?p\331\334\237VC\351?6\211\230G9i\360\2776\211\230G9i\360\2776\211\230G9i\360\277p\331\334\237VC\351?6\211\230G9i\360\277p\331\334\237VC\351?p\331\334\237VC\351?p\331\334\237VC\351?p\331\334\237VC\351?6\211\230G9i\360\2776\211\230G9i\360\277p\331\334\237VC\351?p\331\334\237VC\351?p\331\334\237VC\351?p\331\334\237VC\351?6\211\230G9i\360\2776\211\230G9i\360\277p\331\334\237VC\351?p\331\334\237VC\351?p\331\334\237VC\351?p\331\334\237VC\351?6\211\230G9i\360\277p\331\334\237VC\351?6\211\230G9i\360\277p\331\334\237VC\351?p\331\334\237VC\351?6\211\230G9i\360\2776\211\230G9i\360\277p\331\334\237VC\351?6\211\230G9i\360\277p\331\334\237VC\351?6\211\230G9i\360\277p\331\334\237VC\351?p\331\334\237VC\351?p\331\334\237VC\351?6\211\230G9i\360\277p\331\334\237VC\351?p\331\334\237VC\351?6\211\230G9i\360\2776\211\230G9i\360\2776\211\230G9i\360\277p\331\334\237VC\351?6\211\230G9i\360\2776\211\230G9i\360\277p\331\334\237VC\351?6\211\230G9i\360\277p\331\334\237VC\351?6\211\230G9i\360\277p\331\334\237VC\351?p\331\334\237VC\351?6\211\230G9i\360\2776\211\230G9i\360\277p\331\334\237VC\351?p\331\334\237VC\351?6\211\230G9i\360\277p\331\334\237VC\351?p\331\334\237VC\351?6\211\230G9i\360\2776\211\230G9i\360\277p\331\334\237VC\351?6\211\230G9i\360\277p\331\334\237VC\351?6\211\230G9i\360\277p\331\334\237VC\351?p\331\334\237VC\351?p\331\334\237VC\351?p\331\334\237VC\351?p\331\334\237VC\351?p\331\334\237VC\351?6\211\230G9i\360\2776\211\230G9i\360\2776\211\230G9i\360\277p\331\334\237VC\351?p\331\334\237VC\351?6\211\230G9i\360\277p\331\334\237VC\351?6\211\230G9i\360\2776\211\230G9i\360\277\223\277\217\357\016\272\006\3006\211\230G9i\360\2776\211\230G9i\360\277p\331\334\237VC\351?p\331\334\237VC\351?6\211\230G9i\360\277p\331\334\237VC\351?p\331\334\237VC\351?6\211\230G9i\360\277p\331\334\237VC\351?p\331\334\237VC\351?6\211\230G9i\360\277p\331\334\237VC\351?6\211\230G9i\360\277p\331\334\237VC\351?p\331\334\237VC\351?p\331\334\237VC\351?6\211\230G9i\360\277p\331\334\237VC\351?\223\277\217\357\016\272\006\300S\261\272\363G\326\004@p\331\334\237VC\351?p\331\334\237VC\351?p\331\334\237VC\351?p\331\334\237VC\351?6\211\230G9i\360\2776\211\230G9i\360\2776\211\230G9i\360\277p\331\334\237VC\351?p\331\334\237VC\351?p\331\334\237VC\351?6\211\230G9i\360\277p\331\334\237VC\351?p\331\334\237VC\351?6\211\230G9i\360\277p\331\334\237VC\351?6\211\230G9i\360\2776\211\230G9i\360\2776\211\230G9i\360\2776\211\230G9i\360\2776\211\230G9i\360\277p\331\334\237VC\351?6\211\230G9i\360\277p\331\334\237VC\351?p\331\334\237VC\351?6\211\230G9i\360\277p\331\334\237VC\351?p\331\334\237VC\351?6\211\230G9i\360\277p\331\334\237VC\351?6\211\230G9i\360\2776\211\230G9i\360\277p\331\334\237VC\351?6\211\230G9i\360\2776\211\230G9i\360\277p\331\334\237VC\351?6\211\230G9i\360\277p\331\334\237VC\351?S\261\272\363G\326\004@6\211\230G9i\360\2776\211\230G9i\360\2776\211\230G9i\360\277p\331\334\237VC\351?p\331\334\237VC\351?6\211\230G9i\360\277p\331\334\237VC\351?6\211\230G9i\360\2776\211\230G9i\360\277p\331\334\237VC\351?6\211\230G9i\360\277p\331\334\237VC\351?p\331\334\237VC\351?6\211\230G9i\360\2776\211\230G9i\360\2776\211\230G9i\360\2776\211\230G9i\360\277p\331\334\237VC\351?p\331\334\237VC\351?p\331\334\237VC\351?p\331\334\237VC\351?p\331\334\237VC\351?p\331\334\237VC\351?6\211\230G9i\360\277p\331\334\237VC\351?6\211\230G9i\360\2776\211\230G9i\360\2776\211\230G9i\360\277p\331\334\237VC\351?p\331\334\237VC\351?6\211\230G9i\360\277p\331\334\237VC\351?6\211\230G9i\360\277p\331\334\237VC\351?6\211\230G9i\360\277p\331\334\237VC\351?p\331\334\237VC\351?p\331\334\237VC\351?p\331\334\237VC\351?p\331\334\237VC\351?p\331\334\237VC\351?6\211\230G9i\360\2776\211\230G9i\360\277p\331\334\237VC\351?6\211\230G9i\360\2776\211\230G9i\360\277p\331\334\237VC\351?6\211\230G9i\360\277S\261\272\363G\326\004@p\331\334\237VC\351?6\211\230G9i\360\277p\331\334\237VC\351?p\331\334\237VC\351?p\331\334\237VC\351?6\211\230G9i\360\277p\331\334\237VC\351?6\211\230G9i\360\277p\331\334\237VC\351?p\331\334\237VC\351?6\211\230G9i\360\2776\211\230G9i\360\2776\211\230G9i\360\277p\331\334\237VC\351?p\331\334\237VC\351?6\211\230G9i\360\2776\211\230G9i\360\277p\331\334\237VC\351?p\331\334\237VC\351?p\331\334\237VC\351?p\331\334\237VC\351?6\211\230G9i\360\2776\211\230G9i\360\2776\211\230G9i\360\277p\331\334\237VC\351?p\331\334\237VC\351?6\211\230G9i\360\277S\261\272\363G\326\004@p\331\334\237VC\351?p\331\334\237VC\351?6\211\230G9i\360\277p\331\334\237VC\351?6\211\230G9i\360\2776\211\230G9i\360\2776\211\230G9i\360\2776\211\230G9i\360\277p\331\334\237VC\351?p\331\334\237VC\351?6\211\230G9i\360\277p\331\334\237VC\351?6\211\230G9i\360\277p\331\334\237VC\351?6\211\230G9i\360\277p\331\334\237VC\351?6\211\230G9i\360\2776\211\230G9i\360\277p\331\334\237VC\351?6\211\230G9i\360\2776\211\230G9i\360\2776\211\230G9i\360\2776\211\230G9i\360\277S\261\272\363G\326\004@p\331\334\237VC\351?p\331\334\237VC\351?p\331\334\237VC\351?p\331\334\237VC\351?p\331\334\237VC\351?p\331\334\237VC\351?p\331\334\237VC\351?6\211\230G9i\360\2776\211\230G9i\360\277p\331\334\237VC\351?p\331\334\237VC\351?6\211\230G9i\360\2776\211\230G9i\360\2776\211\230G9i\360\2776\211\230G9i\360\2776\211\230G9i\360\277p\331\334\237VC\351?p\331\334\237VC\351?p\331\334\237VC\351?6\211\230G9i\360\277p\331\334\237VC\351?6\211\230G9i\360\277p\331\334\237VC\351?p\331\334\237VC\351?6\211\230G9i\360\2776\211\230G9i\360\277p\331\334\237VC\351?6\211\230G9i\360\277p\331\334\237VC\351?6\211\230G9i\360\277p\331\334\237VC\351?p\331\334\237VC\351?p\331\334\237VC\351?6\211\230G9i\360\277p\331\334\237VC\351?p\331\334\237VC\351?6\211\230G9i\360\277p\331\334\237VC\351?p\331\334\237VC\351?6\211\230G9i\360\277p\331\334\237VC\351?p\331\334\237VC\351?p\331\334\237VC\351?p\331\334\237VC\351?p\331\334\237VC\351?6\211\230G9i\360\2776\211\230G9i\360\2776\211\230G9i\360\2776\211\230G9i\360\2776\211\230G9i\360\277p\331\334\237VC\351?6\211\230G9i\360\277p\331\334\237VC\351?p\331\334\237VC\351?p\331\334\237VC\351?p\331\334\237VC\351?6\211\230G9i\360\277p\331\334\237VC\351?6\211\230G9i\360\2776\211\230G9i\360\277p\331\334\237VC\351?6\211\230G9i\360\277p\331\334\237VC\351?6\211\230G9i\360\2776\211\230G9i\360\277p\331\334\237VC\351?p\331\334\237VC\351?6\211\230G9i\360\277S\261\272\363G\326\004@p\331\334\237VC\351?p\331\334\237VC\351?p\331\334\237VC\351?p\331\334\237VC\351?6\211\230G9i\360\277p\331\334\237VC\351?6\211\230G9i\360\277p\331\334\237VC\351?6\211\230G9i\360\277p\331\334\237VC\351?6\211\230G9i\360\277p\331\334\237VC\351?p\331\334\237VC\351?p\331\334\237VC\351?6\211\230G9i\360\277p\331\334\237VC\351?p\331\334\237VC\351?p\331\334\237VC\351?6\211\230G9i\360\277p\331\334\237VC\351?p\331\334\237VC\351?6\211\230G9i\360\277p\331\334\237VC\351?p\331\334\237VC\351?6\211\230G9i\360\2776\211\230G9i\360\277p\331\334\237VC\351?p\331\334\237VC\351?p\331\334\237VC\351?p\331\334\237VC\351?6\211\230G9i\360\277p\331\334\237VC\351?6\211\230G9i\360\277p\331\334\237VC\351?6\211\230G9i\360\2776\211\230G9i\360\2776\211\230G9i\360\277p\331\334\237VC\351?6\211\230G9i\360\277p\331\334\237VC\351?p\331\334\237VC\351?p\331\334\237VC\351?p\331\334\237VC\351?p\331\334\237VC\351?p\331\334\237VC\351?p\331\334\237VC\351?6\211\230G9i\360\277S\261\272\363G\326\004@p\331\334\237VC\351?6\211\230G9i\360\2776\211\230G9i\360\277p\331\334\237VC\351?6\211\230G9i\360\2776\211\230G9i\360\2776\211\230G9i\360\277p\331\334\237VC\351?p\331\334\237VC\351?p\331\334\237VC\351?p\331\334\237VC\351?6\211\230G9i\360\277p\331\334\237VC\351?6\211\230G9i\360\277S\261\272\363G\326\004@6\211\230G9i\360\277p\331\334\237VC\351?p\331\334\237VC\351?6\211\230G9i\360\2776\211\230G9i\360\277p\331\334\237VC\351?p\331\334\237VC\351?6\211\230G9i\360\2776\211\230G9i\360\277p\331\334\237VC\351?p\331\334\237VC\351?p\331\334\237VC\351?p\331\334\237VC\351?p\331\334\237VC\351?p\331\334\237VC\351?6\211\230G9i\360\2776\211\230G9i\360\277p\331\334\237VC\351?p\331\334\237VC\351?p\331\334\237VC\351?p\331\334\237VC\351?p\331\334\237VC\351?6\211\230G9i\360\277p\331\334\237VC\351?p\331\334\237VC\351?6\211\230G9i\360\2776\211\230G9i\360\2776\211\230G9i\360\2776\211\230G9i\360\277p\331\334\237VC\351?p\331\334\237VC\351?p\331\334\237VC\351?p\331\334\237VC\351?p\331\334\237VC\351?p\331\334\237VC\351?S\261\272\363G\326\004@6\211\230G9i\360\2776\211\230G9i\360\2776\211\230G9i\360\277p\331\334\237VC\351?6\211\230G9i\360\277p\331\334\237VC\351?p\331\334\237VC\351?p\331\334\237VC\351?6\211\230G9i\360\277p\331\334\237VC\351?6\211\230G9i\360\2776\211\230G9i\360\2776\211\230G9i\360\277p\331\334\237VC\351?p\331\334\237VC\351?6\211\230G9i\360\277p\331\334\237VC\351?p\331\334\237VC\351?6\211\230G9i\360\277p\331\334\237VC\351?p\331\334\237VC\351?6\211\230G9i\360\277p\331\334\237VC\351?p\331\334\237VC\351?6\211\230G9i\360\277p\331\334\237VC\351?6\211\230G9i\360\277p\331\334\237VC\351?6\211\230G9i\360\277p\331\334\237VC\351?6\211\230G9i\360\277p\331\334\237VC\351?p\331\334\237VC\351?p\331\334\237VC\351?p\331\334\237VC\351?S\261\272\363G\326\004@p\331\334\237VC\351?p\331\334\237VC\351?p\331\334\237VC\351?p\331\334\237VC\351?p\331\334\237VC\351?p\331\334\237VC\351?p\331\334\237VC\351?p\331\334\237VC\351?p\331\334\237VC\351?6\211\230G9i\360\277p\331\334\237VC\351?p\331\334\237VC\351?p\331\334\237VC\351?6\211\230G9i\360\277p\331\334\237VC\351?6\211\230G9i\360\2776\211\230G9i\360\277p\331\334\237VC\351?6\211\230G9i\360\2776\211\230G9i\360\277p\331\334\237VC\351?6\211\230G9i\360\277p\331\334\237VC\351?p\331\334\237VC\351?p\331\334\237VC\351?p\331\334\237VC\351?p\331\334\237VC\351?6\211\230G9i\360\2776\211\230G9i\360\277p\331\334\237VC\351?p\331\334\237VC\351?6\211\230G9i\360\2776\211\230G9i\360\277p\331\334\237VC\351?p\331\334\237VC\351?p\331\334\237VC\351?6\211\230G9i\360\2776\211\230G9i\360\277p\331\334\237VC\351?p\331\334\237VC\351?6\211\230G9i\360\277p\331\334\237VC\351?p\331\334\237VC\351?6\211\230G9i\360\2776\211\230G9i\360\2776\211\230G9i\360\2776\211\230G9i\360\277p\331\334\237VC\351?p\331\334\237VC\351?6\211\230G9i\360\277p\331\334\237VC\351?p\331\334\237VC\351?p\331\334\237VC\351?6\211\230G9i\360\2776\211\230G9i\360\277p\331\334\237VC\351?p\331\334\237VC\351?p\331\334\237VC\351?6\211\230G9i\360\277p\331\334\237VC\351?p\331\334\237VC\351?p\331\334\237VC\351?6\211\230G9i\360\277p\331\334\237VC\351?\223\277\217\357\016\272\006\300p\331\334\237VC\351?6\211\230G9i\360\2776\211\230G9i\360\2776\211\230G9i\360\277p\331\334\237VC\351?p\331\334\237VC\351?p\331\334\237VC\351?p\331\334\237VC\351?p\331\334\237VC\351?p\331\334\237VC\351?p\331\334\237VC\351?6\211\230G9i\360\277p\331\334\237VC\351?p\331\334\237VC\351?6\211\230G9i\360\277S\261\272\363G\326\004@6\211\230G9i\360\2776\211\230G9i\360\2776\211\230G9i\360\2776\211\230G9i\360\2776\211\230G9i\360\277p\331\334\237VC\351?p\331\334\237VC\351?6\211\230G9i\360\277p\331\334\237VC\351?6\211\230G9i\360\277p\331\334\237VC\351?6\211\230G9i\360\277p\331\334\237VC\351?6\211\230G9i\360\277p\331\334\237VC\351?p\331\334\237VC\351?p\331\334\237VC\351?p\331\334\237VC\351?p\331\334\237VC\351?6\211\230G9i\360\277p\331\334\237VC\351?p\331\334\237VC\351?p\331\334\237VC\351?p\331\334\237VC\351?p\331\334\237VC\351?6\211\230G9i\360\2776\211\230G9i\360\277p\331\334\237VC\351?6\211\230G9i\360\277p\331\334\237VC\351?p\331\334\237VC\351?6\211\230G9i\360\277p\331\334\237VC\351?p\331\334\237VC\351?p\331\334\237VC\351?6\211\230G9i\360\2776\211\230G9i\360\2776\211\230G9i\360\2776\211\230G9i\360\2776\211\230G9i\360\277p\331\334\237VC\351?6\211\230G9i\360\277p\331\334\237VC\351?p\331\334\237VC\351?6\211\230G9i\360\2776\211\230G9i\360\2776\211\230G9i\360\277p\331\334\237VC\351?p\331\334\237VC\351?p\331\334\237VC\351?p\331\334\237VC\351?p\331\334\237VC\351?p\331\334\237VC\351?p\331\334\237VC\351?p\331\334\237VC\351?p\331\334\237VC\351?S\261\272\363G\326\004@p\331\334\237VC\351?6\211\230G9i\360\2776\211\230G9i\360\277p\331\334\237VC\351?6\211\230G9i\360\277p\331\334\237VC\351?6\211\230G9i\360\2776\211\230G9i\360\2776\211\230G9i\360\2776\211\230G9i\360\277p\331\334\237VC\351?p\331\334\237VC\351?p\331\334\237VC\351?6\211\230G9i\360\277p\331\334\237VC\351?p\331\334\237VC\351?6\211\230G9i\360\277p\331\334\237VC\351?p\331\334\237VC\351?p\331\334\237VC\351?p\331\334\237VC\351?6\211\230G9i\360\277p\331\334\237VC\351?6\211\230G9i\360\277p\331\334\237VC\351?6\211\230G9i\360\277p\331\334\237VC\351?6\211\230G9i\360\277p\331\334\237VC\351?p\331\334\237VC\351?6\211\230G9i\360\2776\211\230G9i\360\277p\331\334\237VC\351?p\331\334\237VC\351?6\211\230G9i\360\2776\211\230G9i\360\277p\331\334\237VC\351?p\331\334\237VC\351?6\211\230G9i\360\2776\211\230G9i\360\277p\331\334\237VC\351?p\331\334\237VC\351?p\331\334\237VC\351?6\211\230G9i\360\2776\211\230G9i\360\277p\331\334\237VC\351?6\211\230G9i\360\277p\331\334\237VC\351?6\211\230G9i\360\277p\331\334\237VC\351?p\331\334\237VC\351?p\331\334\237VC\351?p\331\334\237VC\351?S\261\272\363G\326\004@p\331\334\237VC\351?6\211\230G9i\360\2776\211\230G9i\360\2776\211\230G9i\360\277p\331\334\237VC\351?6\211\230G9i\360\2776\211\230G9i\360\2776\211\230G9i\360\277p\331\334\237VC\351?p\331\334\237VC\351?6\211\230G9i\360\277p\331\334\237VC\351?p\331\334\237VC\351?p\331\334\237VC\351?p\331\334\237VC\351?6\211\230G9i\360\277p\331\334\237VC\351?p\331\334\237VC\351?p\331\334\237VC\351?6\211\230G9i\360\2776\211\230G9i\360\277p\331\334\237VC\351?6\211\230G9i\360\277p\331\334\237VC\351?6\211\230G9i\360\277p\331\334\237VC\351?p\331\334\237VC\351?6\211\230G9i\360\2776\211\230G9i\360\2776\211\230G9i\360\2776\211\230G9i\360\2776\211\230G9i\360\2776\211\230G9i\360\2776\211\230G9i\360\2776\211\230G9i\360\2776\211\230G9i\360\277p\331\334\237VC\351?p\331\334\237VC\351?6\211\230G9i\360\277p\331\334\237VC\351?6\211\230G9i\360\2776\211\230G9i\360\277p\331\334\237VC\351?p\331\334\237VC\351?p\331\334\237VC\351?6\211\230G9i\360\277p\331\334\237VC\351?p\331\334\237VC\351?6\211\230G9i\360\2776\211\230G9i\360\277p\331\334\237VC\351?6\211\230G9i\360\277p\331\334\237VC\351?p\331\334\237VC\351?p\331\334\237VC\351?6\211\230G9i\360\2776\211\230G9i\360\277p\331\334\237VC\351?6\211\230G9i\360\2776\211\230G9i\360\2776\211\230G9i\360\2776\211\230G9i\360\2776\211\230G9i\360\277p\331\334\237VC\351?6\211\230G9i\360\277p\331\334\237VC\351?6\211\230G9i\360\2776\211\230G9i\360\2776\211\230G9i\360\277p\331\334\237VC\351?p\331\334\237VC\351?6\211\230G9i\360\2776\211\230G9i\360\277p\331\334\237VC\351?6\211\230G9i\360\277p\331\334\237VC\351?6\211\230G9i\360\277p\331\334\237VC\351?p\331\334\237VC\351?6\211\230G9i\360\2776\211\230G9i\360\2776\211\230G9i\360\2776\211\230G9i\360\2776\211\230G9i\360\2776\211\230G9i\360\277p\331\334\237VC\351?6\211\230G9i\360\2776\211\230G9i\360\277p\331\334\237VC\351?6\211\230G9i\360\2776\211\230G9i\360\277p\331\334\237VC\351?6\211\230G9i\360\277p\331\334\237VC\351?p\331\334\237VC\351?6\211\230G9i\360\2776\211\230G9i\360\2776\211\230G9i\360\2776\211\230G9i\360\2776\211\230G9i\360\2776\211\230G9i\360\2776\211\230G9i\360\2776\211\230G9i\360\277p\331\334\237VC\351?6\211\230G9i\360\2776\211\230G9i\360\2776\211\230G9i\360\277p\331\334\237VC\351?S\261\272\363G\326\004@6\211\230G9i\360\2776\211\230G9i\360\2776\211\230G9i\360\277p\331\334\237VC\351?6\211\230G9i\360\277p\331\334\237VC\351?6\211\230G9i\360\2776\211\230G9i\360\277p\331\334\237VC\351?6\211\230G9i\360\277\223\277\217\357\016\272\006\300p\331\334\237VC\351?p\331\334\237VC\351?p\331\334\237VC\351?p\331\334\237VC\351?6\211\230G9i\360\277p\331\334\237VC\351?p\331\334\237VC\351?6\211\230G9i\360\277p\331\334\237VC\351?p\331\334\237VC\351?p\331\334\237VC\351?6\211\230G9i\360\2776\211\230G9i\360\277p\331\334\237VC\351?p\331\334\237VC\351?6\211\230G9i\360\2776\211\230G9i\360\277S\261\272\363G\326\004@6\211\230G9i\360\277p\331\334\237VC\351?p\331\334\237VC\351?6\211\230G9i\360\277S\261\272\363G\326\004@6\211\230G9i\360\277p\331\334\237VC\351?6\211\230G9i\360\2776\211\230G9i\360\277p\331\334\237VC\351?p\331\334\237VC\351?p\331\334\237VC\351?p\331\334\237VC\351?6\211\230G9i\360\2776\211\230G9i\360\277p\331\334\237VC\351?p\331\334\237VC\351?6\211\230G9i\360\2776\211\230G9i\360\277p\331\334\237VC\351?p\331\334\237VC\351?p\331\334\237VC\351?p\331\334\237VC\351?6\211\230G9i\360\277p\331\334\237VC\351?6\211\230G9i\360\277p\331\334\237VC\351?p\331\334\237VC\351?p\331\334\237VC\351?p\331\334\237VC\351?6\211\230G9i\360\277p\331\334\237VC\351?6\211\230G9i\360\2776\211\230G9i\360\277p\331\334\237VC\351?p\331\334\237VC\351?p\331\334\237VC\351?p\331\334\237VC\351?p\331\334\237VC\351?6\211\230G9i\360\2776\211\230G9i\360\2776\211\230G9i\360\2776\211\230G9i\360\2776\211\230G9i\360\277p\331\334\237VC\351?6\211\230G9i\360\277p\331\334\237VC\351?6\211\230G9i\360\277p\331\334\237VC\351?p\331\334\237VC\351?6\211\230G9i\360\2776\211\230G9i\360\2776\211\230G9i\360\277p\331\334\237VC\351?p\331\334\237VC\351?6\211\230G9i\360\277p\331\334\237VC\351?6\211\230G9i\360\277p\331\334\237VC\351?6\211\230G9i\360\277p\331\334\237VC\351?6\211\230G9i\360\2776\211\230G9i\360\2776\211\230G9i\360\2776\211\230G9i\360\277p\331\334\237VC\351?p\331\334\237VC\351?6\211\230G9i\360\277p\331\334\237VC\351?6\211\230G9i\360\2776\211\230G9i\360\2776\211\230G9i\360\277p\331\334\237VC\351?p\331\334\237VC\351?S\261\272\363G\326\004@6\211\230G9i\360\277S\261\272\363G\326\004@6\211\230G9i\360\277p\331\334\237VC\351?p\331\334\237VC\351?6\211\230G9i\360\2776\211\230G9i\360\277p\331\334\237VC\351?S\261\272\363G\326\004@p\331\334\237VC\351?p\331\334\237VC\351?6\211\230G9i\360\2776\211\230G9i\360\277p\331\334\237VC\351?6\211\230G9i\360\277p\331\334\237VC\351?6\211\230G9i\360\277p\331\334\237VC\351?6\211\230G9i\360\277p\331\334\237VC\351?6\211\230G9i\360\277p\331\334\237VC\351?p\331\334\237VC\351?S\261\272\363G\326\004@6\211\230G9i\360\277p\331\334\237VC\351?S\261\272\363G\326\004@p\331\334\237VC\351?p\331\334\237VC\351?p\331\334\237VC\351?p\331\334\237VC\351?p\331\334\237VC\351?6\211\230G9i\360\277p\331\334\237VC\351?p\331\334\237VC\351?p\331\334\237VC\351?p\331\334\237VC\351?p\331\334\237VC\351?6\211\230G9i\360\2776\211\230G9i\360\277p\331\334\237VC\351?6\211\230G9i\360\2776\211\230G9i\360\277p\331\334\237VC\351?6\211\230G9i\360\277p\331\334\237VC\351?p\331\334\237VC\351?6\211\230G9i\360\277p\331\334\237VC\351?6\211\230G9i\360\277p\331\334\237VC\351?p\331\334\237VC\351?6\211\230G9i\360\277p\331\334\237VC\351?6\211\230G9i\360\2776\211\230G9i\360\2776\211\230G9i\360\277p\331\334\237VC\351?p\331\334\237VC\351?S\261\272\363G\326\004@p\331\334\237VC\351?p\331\334\237VC\351?6\211\230G9i\360\277p\331\334\237VC\351?6\211\230G9i\360\277p\331\334\237VC\351?p\331\334\237VC\351?6\211\230G9i\360\2776\211\230G9i\360\277"
      }
    }
  }
}
node {
  name: "tensors/component_6"
  op: "Const"
  device: "/device:CPU:0"
  attr {
    key: "_output_shapes"
    value {
      list {
        shape {
          dim {
            size: 1168
          }
        }
      }
    }
  }
  attr {
    key: "dtype"
    value {
      type: DT_DOUBLE
    }
  }
  attr {
    key: "value"
    value {
      tensor {
        dtype: DT_DOUBLE
        tensor_shape {
          dim {
            size: 1168
          }
        }
        tensor_content: "\022\236\202a\301?\353\277\342k(m\231\330\000@k\236\357QV\257\355\277K\316w\006:\027\322?\014\233\251\204\261v\311?\364\260\257\356\374\365\372\277\260)R\322\224\264\352?c\325p\221\030\370\274\277\364\260\257\356\374\365\372\277\346\3543\000\235\324\315\277\353\323sl\r\275\262\277\342o\226D\020\210\363\277\314/{\010+\354\362\277J`,$\376\010\243?\300N\322\013\342A\325?\230\036&\312 \347\356\277F\317utA\351\330?~]hn\330:\347\277\217\236\201\030\305\250\356\277\307\323\341\245\236\303\261\277]HP`\217\202\341?\000\232b\263\362\'\302?\375\323\274\317\3049\263\277\235\217\333\243\311\244\361\277\222\353\310\241\000\223\304\277\354<\267g\206E\343\277a7\241c\314^\325\277\355\017\244\342\002\326\363\277}\232aj\366\220\305?+7\3069\246\350\323\277v\234\363uG\013\340\277?\325\014\344h\'\360?\346\354\312\214\374\350\007@\213\217\222@\022(\361\277\234\233\361\236l\\\315?y\035\226\225\252\033\347\277@\351\311\245\032\251\347?u\351\244\317@\037\351?Rw_\301!\226\376?\331\357\361\222\264I\363\277 \035)\245\025\254\344\277\207\3250qF\032\362?\215\257\373,\2517\361\277:\225:\013;\010\360?cO.\241u\017\360\277\367\025\271\235\300%\365?\270\017\311\270\334_\362\277\210\337\364\335\257\020\361\277WvaS\032\304\367?\200\275\3147w\242\220?cO.\241u\017\360\277c26{k\033\271?\00282\341>\301\331\277}\014~%G\014\005@\377\017\355E\272R\364\277\205O\365O\303\235\332?=\220\241\t\033\234\337?\220]\261\321\217\267\347\277\244}c!\336C\350\277\027\340<\370j\366\364\277o\221E\271iO\376\277\203\\j\000\321h\340\277\035\007\271\r\307\'\375?\213G\273\264\034q\222\277A\320s\342H\273\337?\274\325\013\233l\220\363?^\336x\307\314Q\355\2771Vf\240\024\273\366?r/\016\030\226|\360\277?\325\336\312\251\376\273\277J`,$\376\010\243?\321\274\311Rs\212\342\277\275\337\317\007\326\206\362\277Q\036\002=C\364\354\277\243\266W\271%\326\371?<x\337\343\222V\333\277\303v\027\247f\260\372?\340\026n\250\020{\373?Z]\326\247iA\346\277LP\343\253\305d\366\277d\337b\027A\027\360\277\376}\320\021s\263\352\277cO.\241u\017\360\277\325\257\037\272\206*\363\277\250l\264$\033 \314\277\3162\354\316\267\007\274?\216I)\370\274\312\351?\231\325K\273>n\276\277\377\017\355E\272R\364\277c\325p\221\030\370\274\277\3231\356`\2605\265?\014\233\251\204\261v\311?#\020\177\014)L\365\277\037\314>\\\204}\002@\036\320\341\033\332\301\336?\3147W\267\030K\330\277\034b\2269\236\263\257?\253\325\224\036\366\352\276\277\344\244\355\216\004\004\241\277\227\206\025\245g\200\371?,\016\270\030\371<\321?\036\320\341\033\332\301\336?\005fd\236\025\213\365?\371\257\261\200\365#\364\277\211k$\360\244T\304\277\331\323*\tV@\262\277p\336\301*\204\316\355\277\251O\207\0262\227\333?\301^\212i\275\377\357\277e\365\007\227n0\361?5\020\310o\340\310\365\277Q\036\002=C\364\354\277Q\036\002=C\364\354\277T\026\375b74s\277P\210\331\325\005%\341?1\320\365\226\262\251\365\277\304?\013\315\232\265\362\277\345\217\3770\247\227\363\277;\251\367\314\354\211\347?]\033r\303\352\247\313?Z\240\216\254\032\312\366\277\377\017\355E\272R\364\277Y\232\317\243\207\227\304?\302\350\312\356\026@\344?<l\376\320\3163\311\277\236\037\020\032\225\254\361\277*\366*\333O\214\366?\236\037\020\032\225\254\361\277\314\275\307\300z\\\351\277K\316w\006:\027\322?\270\231>&\0255\300?Uj\265(56\357?\'Hu6i\014\340?\014\306\237c\332\271\365?\234\021|14\207\377\277=O\321\302\345\252\330?\366N\2555\010\270\326?\233or\2672\225\361\277\037NA\216o\337\320?\314o\210\302bQ\025@B\314\320\"\363v\003@\246\017\200U%\343\361\277|\317P\236g_\332?\322N\033o\231\276\325?-\036pv\324\372\353\277\305\317?Cf\275\362\277K\005O\370&}\360?\233kmS\\\321\304\277Y\020Z6O\302\366\277\355\017\244\342\002\326\363\277\027\235\204\363\271m\344\277=7\017\235]e\324\277L\247Xr(o\376?>\026\335*\236\030\367?\376}\320\021s\263\352\277E\350\3137\023\327\340?\320\270\371\326{[\337\277\304v\342\276\207\033\321\277\020\301\321y\333\270\373\277h\035M2\363\236\346\277\236\334W\025\344#\341\277-\036pv\324\372\353\277\366\233^\217\001\314\317?\017\276\024R2\210\224?\306\034\274\264\200<\342\277V\350\024\233\312S\341?\247\251\255 9v\352?\307\353:X\206\035\000@l\234i8[\227\004@\317\246Y\273$\006\373?\231\3516\226\257\030\352?\331\357\361\222\264I\363\277\341y\t;xy\211?\2361\0237\212\277\263?n\274\322$\362\246\004@\356\231\031P;\253\301?o\2463\027\307\273\253\2779\017\377\351\267\213\330?\00774s7\357\322\277\3162\354\316\267\007\274?\261\3709\351:\201\336\277H\236]\213\347\265\354\277\211o)T{\030\361\277\n\355\305\306\013\316\316\277\376\211\261$7\326\354?\032O?\374v\261\327?\273\016\0003\264\"\325?9I\223\003N\"\236\277\3436\242\254\310\365\321\277\334\235\2477\233\311\351\277\361\366\0307RS\322\277\007\376t\303\316\361\352\277\3607\351}\207D\331\277\242]\3724G4\350\277\371\267\215/\343\202\331\277)\352~\260j\376\355?\201<\001\024:Y\340\277\310\367\204\336\352+\330\277\234\217\020\214\2509\333?Sw*\331B\001\325\277\003`\010\227 \026\241?\013k%9\241\353\300\277O7X\000\025\342\324\277\347\253\372E\307\367\000@n\367\027\356U\274\325\277l\317\322R\321M\360\277Cjl\305}\271\356?\233\375\276o\202\005\350\277,\032\231+\275_\303?\316O\344\364\301\373\362\277\034\246\177\332\372&\366?W\370\314\370\245\021\334\277\262\374\te2\260\341\277V\324)\300Y\251\265\277\372v\275\350\255\221\322\277Q2\355\027\264\236\270?\226lk\301c\243\313\277h\035M2\363\236\346\277+7\3069\246\350\323\277\205O\365O\303\235\332?\314/{\010+\354\362\277\2507\305\360\251Q\327\277\377\215\201\240.\005\320?\205\275\2433\235i\347\277\260\324\226\260\356\030\270\277\310<%\241\027L\342\277\213\035\337\370a\230\347\277y\217I\335Z\253\360\277x\233_\330\375b\314?\033\335V\314\347\214\344\277\244\357\026i\216\323\361\277\361Hovp/\234\277\355\017\244\342\002\326\363\277\251|e\263\326q\341\277XIN\316\226T\350?\313lF\353\211\031\315\277\330\034\005\0308\271\342\277\263\236\023\3373\242\357\277Q\325UG \244\360?\253\337\206\244\036\n\362\277\217\0205`u8\370\277\252\214\264\235\021D\006@\262\317+\310\215\325\333?\227DQ\177t\303\005@\001iJ\312\230\364\345?Aw\341u\213\204\324\277\222\353\310\241\000\223\304\277w\375,\251\023\014\347\277$\236\313\304x\274\353\277B@\n\204\236\036\366\277\254\250\257\2621\244\343?D\324\340\\\242,\265\277\323G\337A\372c\224\277\257`)\304\201\032\371\277F=$X\033\265\345\277\020~\031u*0\353\277\264\034sQ\311\277\341\277\013\270\326\222\232\377\331\277t\032\275\270\232R\305?p\225\0255a~\361?\332\211\037^\310\334\353?\330\034\005\0308\271\342\277\314/{\010+\354\362\277\344\233\025,JO\317?aOc\211T\244\331?\201\211\262m3m\351?n\367\027\356U\274\325\277\377\017\355E\272R\364\277\237~a\217\345\025\357\277\233kmS\\\321\304\277`\2655\276@\021\361?n\367\027\356U\274\325\277\326IM\205\232\275\353?\257\035q\277\320\221\350\277\264\034sQ\311\277\341\277\246\336\234T\252D\357\277\025\017m#I\222\327?\361\210jSx\207\345?2\324\227\371\352\257\264\277\3011\245\375\370\270\264?A\320s\342H\273\337?\364\260\257\356\374\365\372\277\0043\307\370\335}\275?>\220l!<\007\366\277=O\321\302\345\252\330?\'\246\017\212\351\310\251\277\260\350\201\213_\303\343?\205\275\2433\235i\347\277.\277\244\206\250S\234?c\325p\221\030\370\274\277\330\214V\000MK\205\277\355\017\244\342\002\326\363\277\325\267\373ht\211\330\277\2532Z\010I\016\273?:P\232H\016\350\365\277\036\320\341\033\332\301\336?\304\216\244\344\017a\325?\314/{\010+\354\362\277\34517\304g\262\265?Q\3351\366\r\003\346\277\342k\221\3409\304\306\277,\245\021\034\342\366\242\277\267\177\224B\021X\362\277\352]\036\302$\'\352\277b\032tU\343\325\304?\367)v_r\247\354?;\235\026\272(g\345\2776&m\357\r\342\366?.\246\310=\262\243\366?\031\000\246\344\001\006\365\277\276k\377\031\313\312\305\277\021\216\312\003\346\201\320?B@\n\204\236\036\366\277\351\313c2^\007\001@\0043\307\370\335}\275?\332\246\351j\023\250\256\277\352\034N{\3575\343\277z\334\305Nu*\340\277;\251\367\314\354\211\347?Q\036\002=C\364\354\277\252HK\351\222<\232\277\253\234\316\237m\201\341\277\2438\303^\261#\336\277\355\017\244\342\002\326\363\277\256N\211\250*\305\324?\014\233\251\204\261v\311?\364o\337\247\307\004\364\277\017\370\250k\310\036\332\277\323G\337A\372c\224\277\355\017\244\342\002\326\363\277\264\034sQ\311\277\341\277\240vP\370\030\"\320\277#\020\177\014)L\365\277O7X\000\025\342\324\277\357l\330\261\370\022\316\277\031\376\275&\206n\353\277z\334\305Nu*\340\277\253\325\224\036\366\352\276\277\323\035\003\206?\213\351\277\255k\266\266\023N\305\2771N\212\361&\\\321?\355\017\244\342\002\326\363\277u\351\244\317@\037\351?\222`P\261\333\373\244?\344\310\363\310\356)\345?&\312\025\304\323\356\355?E\350\3137\023\327\340?y\217I\335Z\253\360\277\364kq\320PU\001@\202\017\356\216\266\351\360\2778t\335?\346,\003@\356SP\306q*\001@\366\233^\217\001\314\317?\035\270\037\366Q|\332\277\322N\033o\231\276\325?\204/W{M\371\360\277\254>\330\031os\357\277}\2368\265\r,\356\277xN\256~\004O\323?\212\205\316\323\2501\362?Z\252\207\001cU\357?\304\374R\310\351,\342\277\311\005N\257*\346\363?\307(\235\307D_\344?h\035M2\363\236\346\277\032H\003\317\327V\226\277\354\367\026\245Y%\331\277\320\270\371\326{[\337\277\342k\221\3409\304\306\277/k\267\377\017\345\301\277\352\034N{\3575\343\277K\316w\006:\027\322?\00774s7\357\322\277*l\265m\027\267\310\277X\267\374\261p \325\277\242]\3724G4\350\277\216\006q\363\013B\371?\271h&=\273\001\344?d\337b\027A\027\360\277\263\232<\224\034\007\307?\367\035\225L\256\204\352\277\036\233\362\347h\363\311?I\214\016\346\221e\201\277V\035\004\317;\"\346\277\3011\245\375\370\270\264?O\311\251\034;\026\350?\371\267\215/\343\202\331\277\246\225\360^\207\364\362?\025\027I\3226\361\374?\205O\365O\303\235\332?H]\215D\262\304\345\277+\220X\246c\037\337?\204/W{M\371\360\277\225h\224vL\010\343?4\317,\021\212l\330?\025\004\200\357B;\002@\350vt\205\366\024\322\277\221(\302\235\036\351\342?\352\034N{\3575\343\277\244\266\"\321FA\320\277c\325p\221\030\370\274\277\001\367\226\202\350d\374?\306im\016zP\353?\334\235\2477\233\311\351\277\255\375\007\3239\202\350\277\355\017\244\342\002\326\363\277_h\271L&\222\341?x\233_\330\375b\314?\336+V\224k\271\000@\325\267\373ht\211\330\277jI\2271N\321\350?\332\246\351j\023\250\256\277\234\320\253\352\376\225\370\277\'\017\266\206\000\017\330?\237\370\360\205\203\004\336\277x\205\205p\361\264\361?\355\017\244\342\002\326\363\277\331ub\234\026[\364?0\233;K p\312?Q\036\002=C\364\354\277eJ\225\237U\243\357?t\2455\251\277\351\244\277\325\267\373ht\211\330\277\256\217Y\357_\266\333?\232e\256J\311\236\362?4\317,\021\212l\330?\020\267\330$\223-\323\277\233kmS\\\321\304\277\273|\256\026\216\356\341\277u\325\347\r\217\235\361?\355\017\244\342\002\326\363\2773~\253;\231)\354\277\361\016\333\\\332\230\326?-\036pv\324\372\353\277=\275\177\246\277v\345\277P\016J\337g6\322?\363\234\362,Kt\343\277\004\035V\004r\273\010@\234N@EsH\324?\t\036\336\257e\001\353\277\371a\004s/\272\256?B\t3\222\261\270\347?>\016\001|\260\271\321?4\267j\353\001\'\324\277\273\210\217)R\021\344?b\032tU\343\325\304?\344\244\355\216\004\004\241\277\240Ir[tG\352?\317\3350\255\021l\351\2771^BO\002\032\354\277\246\017\200U%\343\361\277\203hK\023\225\213\342?\344\314a\240e\331\007@<h\'\206\267\230\340?y^f\334\337\014\356\277\210\270\325I\236h\335\277@w\026^j\031\376?\267\005\005Lsi\363?\\\312\360\355\371d\357?\214\350\357\304\360\311\342?\230\036&\312 \347\356\277\254\260\213a\037\003\371\277j\317\007;\260\342\331?\356\231\031P;\253\301?\357l\330\261\370\022\316\277\370\357\276:-\211\026@\321\t{\254l\236\353?\032H\003\317\327V\226\277\17781\230B*\335\277V\350\024\233\312S\341?#\020\177\014)L\365\277Q\036\002=C\364\354\277\252OR.S\002\362\277\021\0206\251q\317\364\277\027\251e\006~\220\346?\3475\331&\240\270\364?S>k)\332\003\355\277\226xL\324\'\306\335\277\350vt\205\366\024\322\277tE\263\227\303\225\361?\355\017\244\342\002\326\363\277\000gb\014\035]\374?1^BO\002\032\354\277\235\035(\\\031\025\350\277\351\232\027\276B}\310?\007\376t\303\316\361\352\277\n\355\305\306\013\316\316\277\361\277AEe\355\363\277|=\377\201A+\347\277V\\N\374u\373\003@\351\232\027\276B}\310?\\\353\355w\332\034\303\277f\233\026uF\346\313?V\350\024\233\312S\341?\322\310\252e7\255\344?}\216\200W2n\323?i5\332o\234O\361?\261=\332\253g\241\350\277\205\000\\8N\362\367\277\334\231\320\354\203.\301?\022\226\246\262\323\340\365?\364o\337\247\307\004\364\277\020\200\0013\246\307\364\277`xq\252\001P\334\277\344\233\025,JO\317?\240vP\370\030\"\320\277]\005\230[\336\371\360?\332`t>\271\356\246?V1\357\251\254\314\261?\251\277\035\270\207\372\361\277*l\265m\027\267\310\277\017\276\024R2\210\224?#\317\343\255\322\357\327?9\017\377\351\267\213\330?\315O\031\335\240\220\334? \035)\245\025\254\344\277\207\351\3552\370\233\351?\364o\337\247\307\004\364\277a\311\362\177\362\222\350?\003P\364\006\307\006\336?j\317\007;\260\342\331?B\233\204\256\327\354\312?,\245\021\034\342\366\242\277@\260\325\r\323\026\366\277\205\311\204Fa\214\351?\306im\016zP\353?TN\034\270\225U\322?f\377\313\003\330&\360\277\020\267\330$\223-\323\277\377\017\355E\272R\364\277\323)\344\230\003\256\353??\325\014\344h\'\360?\350\010\306\241\034I\345?\241U\036\206Y\325\362?\360+\237\367\"6\001@\231\234\205<\266\004\341\277\303\257\326V\317\255\362\277\270\017\311\270\334_\362\277(\316\345?\313\035\321?\244\266\"\321FA\320\277Cjl\305}\271\356?6\236\024(09\354\277^\247\241\325\337\353\376?\313ho\240r~\344?:\316.\243\202\232\321?\025\017m#I\222\327?\270\017\311\270\334_\362\277\014\320\230\270\"E\336?\324\354\352\234\345W\315\277Q\036\002=C\364\354\277\303v\027\247f\260\372?\303=#\017\037\036\351\277c\325\236\252\327 \361?2`*\r~\261\365\277V\035\004\317;\"\346\277\'}dj\332\332\344\277\334\235\2477\233\311\351\2773\350\202\324[Z\340?c\351[l\211\242\350?fNe\033M\322\322?\267<\334=`\317\341\277Y\010~\207ac\341?(\316\345?\313\035\321?9\017\377\351\267\213\330?\325\363\313\235\365~\000@\344\233\025,JO\317?\0307\262\276\315\000\375?\376\266\217\301\333\260\322\277\332\246\351j\023\250\256\277\352\034N{\3575\343\2774\267j\353\001\'\324\277V\035\004\317;\"\346\277\223\316\233\223\027\n\324?Ak\000c\307a\302\277\313\\\216\215\256[\342\277\307\323\341\245\236\303\261\277Y\010~\207ac\341?t\2455\251\277\351\244\277|\006(\220T\305\370?\356\231\031P;\253\301?\367\334\304\005y\223\343\277t\2455\251\277\351\244\277;\255e\244c9\n@\265\357_\314EP\362\277\311\033(\0277\224\316?\3162\354\316\267\007\274?D\324\340\\\242,\265\277\315O\031\335\240\220\334?\036\320\341\033\332\301\336?\363\234\362,Kt\343\277\220]\261\321\217\267\347\277\003\300\212\250\034j\364\277\317\351\021\300\325\216\353?\273|\256\026\216\356\341\277\3436\242\254\310\365\321\277d\337b\027A\027\360\277/k\267\377\017\345\301\277\275\234\027\003%\376\341\2779I\223\003N\"\236\277\004\027\000o\177t\374?\363e\033;^\016\365?\330\034\005\0308\271\342\277KH\007\375\327\005\341?Ak\000c\307a\302\277\317\234`f\334z\342\277\261=\332\253g\241\350\277\026\224\264e\016C\002@X\317\276\327\370e\331?\2267|\215\362\324\326\2776\236\024(09\354\277\337\20692Es\373?\217\317d\031@G\361\277AJ\003\331\346\251\356?\350?\235\223\t\257\363\277z1\201p\033\306\262?\211\365\231]\335)\362?\030ll\n`:\310\277\032\032P\310\005\343\302?\251\366\364\251t`\320\277x\233_\330\375b\314?\211o)T{\030\361\277h).E\267\301\350?l\317\322R\321M\360\2777(U\255\211y\340?\322N\033o\231\276\325?tOw\004-\214\360\277\\\353\355w\332\034\303\2772\346\232\026\340\302\366?]\017\221\260&\205\331?\231\234\205<\266\004\341\277Q\036\002=C\364\354\277\377\316Q\347c\366\326?pzQU3_\215?\'\246\017\212\351\310\251\277\2072\310A\332\024\272?\317\234`f\334z\342\277\3162\354\316\267\007\274?@\250\371^\345\267\340?\0043\307\370\335}\275?j\317\007;\260\342\331?Y\232\317\243\207\227\304?h).E\267\301\350?\311\316v\275=\200\325?(\316\345?\313\035\321?A>\"\306\"\207\354\277\036<\n\346\270u\002@\307\353\243\313&\t\306\277\213\217\222@\022(\361\277\301^\212i\275\377\357\277cO.\241u\017\360\277-\036pv\324\372\353\277\273O\320y\351\023\334?=O\321\302\345\252\330?\324\324(w]\022\271\277:\316.\243\202\232\321?\326\317\275\216\374\316\334?\341\333\363\366\315\320\000@0\020\003Q\352\016\030@G\020\021\323\227E\366\277\235\035(\\\031\025\350\277\244\266\"\321FA\320\277%m\263\333\036\211\317\277 \031\273\315\236\374\001\300\352\034N{\3575\343\277*l\265m\027\267\310\277\312\231\207\211\314\261\300?O\334\205\336B\363g?\320\270\371\326{[\337\277\303\257\326V\317\255\362\277H]\215D\262\304\345\277}\317\033\266\210\312\360\277\265\266\240\034\335R\372?\242\034*\356\021C\341\277\355\017\244\342\002\326\363\277\356\251\321\255\026i\354?li\000\036\345\340\350?e\365\007\227n0\361?\377\215\201\240.\005\320?\362\032\274o\236\273\310?a7\241c\314^\325\277\220i\222\344S\332\351?\322\310\252e7\255\344?\327\317\210\246\035:\363\277B\233\204\256\327\354\312?\\8\237\321\3230\334\277P\026&\216U\225\367?#\020\177\014)L\365\277\330\345-&KS\364?\361\210jSx\207\345?\366\233^\217\001\314\317?\271h&=\273\001\344?\2532Z\010I\016\273?g\025q\203\005@\361?\273\311_p\207\002\353?\256VeW\030$\372?\252\325\3027\265\023\363?\352\034N{\3575\343\277\005\352\354\351\373\004\355?KF\037?\\n\367?\214\350\357\304\360\311\342?\307(\235\307D_\344?\035wO\257\034\213\323\277]\316\300i\361\223\322?rl\331\372\364\251\312\277\034\3517\337\253\257\346?\253\234\316\237m\201\341\277\256\233:\002$\331\315?\202\017\356\216\266\351\360\277\344Nd\322P;\326?\035>\220\377\263\215\353\277\231\234\205<\266\004\341\277J`,$\376\010\243?\364\260\257\356\374\365\372\277\334\235\2477\233\311\351\277\026\316\234\334\023\241\320?h\035M2\363\236\346\277KH\007\375\327\005\341?!a\230\313\226\341\250?CG\227\'?~\220\2778\353[\261k#\302\277\307\323\341\245\236\303\261\277d\337b\027A\027\360\277\305\020\020\212\233\256\371\277\342\365\006Nr\231\364?\027\3525M\263\201\355?\222}\032\276&\307\347\277\224\235\203\252\275\326\347\277\256\310\030\237\310\263\343?\255\365+$L#\363?/6\375\263}\253\366?\343\t\304\017$\033\354?\003\300\212\250\034j\364\2777(U\255\211y\340?y\'\217\352\362\246\377?\355\316\010\204\254y\326?k\2167\364z\361\322?\2776\020\346Y\374\320\277\273\016\0003\264\"\325?x\227Zt\'\237\377?\030ll\n`:\310\277#\020\177\014)L\365\277\332\266\375\372l\267\321\277/k\267\377\017\345\301\277W\370\314\370\245\021\334\277 \324N\22633\264\2774\212\214N]L\356?\0332\022\356\215(\267?G\216\245-\014\370\321?\374\034\227\336\246\262\343\2778P\3170\355|\337?\302)\2335L1\353?\013\270\326\222\232\377\331\277\242]\3724G4\350\277\025P=j~\203\336?\347\370\024\023a\367\337\277\321\375\231\231\250{\351\277\373]g%\334\243\352\277\2742\243k\000\213\273?\200\275\3147w\242\220?O\265\354Z\211\224\360?O7X\000\025\342\324\277\177(y:gl\342?i~\206e\277\237\355\277S\007\2247\355\235\376?9I\223\003N\"\236\277\376\005)\331P\\\365?\332\266\375\372l\267\321\277\276\270\260s\304\336\336\277)\251\256i5\r\347?\322N\033o\231\276\325?\355\017\244\342\002\326\363\277\025\017m#I\222\327?\227O>\263z\032\333?\277w\340,\217\355\327\2772-\301\362\007\373\t@\035wO\257\034\213\323\277\371\267\215/\343\202\331\277Y\020Z6O\302\366\277\376}\320\021s\263\352\277\020=I.\365>\344\277c\325p\221\030\370\274\277Q\246Z\004!\235\367?\377\017\355E\272R\364\277\177\266\305\362\266\334\370?=7\017\235]e\324\277\204\265\307\204\257\n\362?s7\352\306\203\333\325\277>\351\230SZi\037@O7X\000\025\342\324\277\205\311\204Fa\214\351?h\324r#\021&\266\277\272\265\242\256\325\200\363?j\317\007;\260\342\331?\036\320\341\033\332\301\336??\036\271\331\213w\354\277j\317\007;\260\342\331?\234V\034\364`\247\371?c\335zY\305\177\346\277b\032tU\343\325\304?c\351[l\211\242\350?\372v\275\350\255\221\322\277_\235\250\200\227`\346\277/\270hY\t\371\332\277~\034\230\'\243I\340\277\375\353~\365L\177\307\277Ak\000c\307a\302\277q\235\361\343N\335\346\277p\225\0255a~\361?\300\233\203e\333U\316?\217\216\311\272\351\352\323?\302\334\351\333R\035\342\277l]\037\013!\276\346\277\264]C\230\376\260\350\277;\235\026\272(g\345\277\374\034\227\336\246\262\343\277\342k\221\3409\304\306\277\314/{\010+\354\362\277\255\t\351\345\375\244\352?E\350\3137\023\327\340?\252OR.S\002\362\277k\020\243\231\006?\367\277\240\317\342d\326X\333?\032\032P\310\005\343\302?.\355W\215z\307\317\277\254\270g\020\rb\336\277F\212\325\261\024\311\356?|\267\216x\337\031\326\277v\234\363uG\013\340\277Y\327\232\206\346\304\376?\316\026%EY\376\372?\376\266\217\301\333\260\322\277\013\213\252y\274\022\020@Rw_\301!\226\376?\224\0177\362mf\361\277\270\017\311\270\334_\362\277h18\rdI\262?\217\317d\031@G\361\277\313ho\240r~\344?\247\\\374\306?b\341\277\367\035\225L\256\204\352\277z\334\305Nu*\340\277\274\032\341ExE\307?\244\211D4\242f\352?\337\366\317\323\232\326\321\277\221\323\006|xM\260\277?\036\271\331\213w\354\277\3216YI\021y\321\277&8\304\247\255\272\332\277\301^\212i\275\377\357\277\'\246\017\212\351\310\251\277\314\265\353\021\215\375\363?\254\270g\020\rb\336\277\302\334\351\333R\035\342\277\241\317\255|\367\303\361\277\261\267i\242\005\220\327\277\223\033M\355\020\036\315?\331\323*\tV@\262\277\016\035\340A^/\344\277\032O?\374v\261\327?\270\017\311\270\334_\362\277\231\325y\324\375\226\362?\335l\217NA\226\315\277wo\340\360\303\233\360\277^\336x\307\314Q\355\277F\317utA\351\330?\034\355\016*\303J\317\277\024\367\252\375\300L\323\277\2658\014\302h\240\336\277\332\246\351j\023\250\256\277\031\220\017C\254\242\336?\'\300\034o\213c\365\277i\3609\255o/\367\277Y\305\305\202\260\332\360?h\215\236\032\0101\211\277\243\323O\337/\312\260\277\202\017\356\216\266\351\360\277Q\036\002=C\364\354\277Q\036\002=C\364\354\277[(\347s\370r\341?\333\013\355\247\324\251\000@\260\324\226\260\356\030\270\277\026\316\234\334\023\241\320?x\205\205p\361\264\361?9\033\340\374{\256\312?Mf\210+\363}\367?R\254\260\231\023\344\003@HU\261\225\304e\360?s7\352\306\203\333\325\277\314/{\010+\354\362\277B\217\243\233\023\312\330?\232e\256J\311\236\362?x\274\\b\336\032\340\277\270\017\311\270\334_\362\277y\217I\335Z\253\360\277\227\210\375b\343\027\343?\340252o\204\274?\217\0205`u8\370\277\352i\377\324\350I\354?\025\033N6\r\265\311?k\232\030\007?\024\305?\351\232\027\276B}\310?Y\232\317\243\207\227\304?\221\345\t\231m`\362?\025\017m#I\222\327?\207\3250qF\032\362?R\260\036q\212\223\366\277:P\232H\016\350\365\277\014\217\310q\355S\327?\300\205\251\375\316\247\363?4\317,\021\212l\330?\376\266\217\301\333\260\322\277Nhp\351n\025\341?\026\316\234\334\023\241\320?\221\323\006|xM\260\277\211>FS\000z\356\277(3Y\277Lw\276?\352]\036\302$\'\352\277\302\334\351\333R\035\342\277\362Ov\2730\365\363\277q\235\361\343N\335\346\277\252HK\351\222<\232\2778}\255\315\221W\345\277\275\351\310\\\036\022\353?\\\312\360\355\371d\357?\357l\330\261\370\022\316\277!a\230\313\226\341\250?\233wNf \364\326\277\2507\305\360\251Q\327\277V1\357\251\254\314\261?KLu\324N\265\003@\013\276a\020l\333\017@\2267|\215\362\324\326\277Q\347*KV\216\376?O\334\205\336B\363g?+\376\006\212=\353\353\277\2375\265\231\302\305\362?]\033r\303\352\247\313?\005\235;\220\002\361\343\277\324\324(w]\022\271\277\306\034\274\264\200<\342\277\212\233\250;\265\337\314?\252OR.S\002\362\277$\236\313\304x\274\353\277\034b\2269\236\263\257?\345\330\r\313Jg\000\300q\340\251\350\377e\367\277\316O\344\364\301\373\362\277\000]i\267\324\321\343\277\335l\217NA\226\315\277\275\351\310\\\036\022\353?\377\017\355E\272R\364\277ews<\372}\325\277G\020\021\323\227E\366\277\217\317d\031@G\361\277\033\335V\314\347\214\344\277\361\311:\232\255x\354?j\317\007;\260\342\331?^P,\017}\341\366\277cO.\241u\017\360\277\264\034sQ\311\277\341\277d\337b\027A\027\360\277HinWv\347\347?h\035M2\363\236\346\277c\036K\240\372p\355\277O\265\354Z\211\224\360?\253\335\236\346\242r\350\277X\317\276\327\370e\331?\302\334\351\333R\035\342\277\007\000]\201J\211\364\277\345\035L\351\366\007\352\277\355\017\244\342\002\326\363\277\221(\302\235\036\351\342?\261=\332\253g\241\350\277\270\017\311\270\334_\362\277:\326\nRp\371\366?\253\337\206\244\036\n\362\277\272/2\245so\362\277Q\036\002=C\364\354\277\310\266\264\227\265:\321\277\223\005s\205\004p\362?\273\311_p\207\002\353?\332`t>\271\356\246?\2438\303^\261#\336\277\202\017\356\216\266\351\360\277\321\375\231\231\250{\351\277\036\320\341\033\332\301\336?]\316\300i\361\223\322?\357l\330\261\370\022\316\277<l\376\320\3163\311\277f\233\026uF\346\313?\216\374w\236\303\266\340\277Y\020Z6O\302\366\277\300\233\203e\333U\316?\375\353~\365L\177\307\277\352\034N{\3575\343\277\307\323\341\245\236\303\261\277*l\265m\027\267\310\277O7X\000\025\342\324\277r\366Nh-\177\370?C\320>\372i&\366\2778\353[\261k#\302\277\355\017\244\342\002\326\363\277\355\017\244\342\002\326\363\277A\320s\342H\273\337?-\036pv\324\372\353\277\301\217mj8\236\362\277\331\323*\tV@\262\277\206\032\006\034R\317\305?@\250\371^\345\267\340?\357h\001g\341w\345?\302\334\351\333R\035\342\277i5\332o\234O\361?c\325p\221\030\370\274\277\3318\236\210\327\231\337\277h\215\236\032\0101\211\277r\366Nh-\177\370?\343\373\\\343d\340\000@\304v\342\276\207\033\321\277\325=lr\326\232\351\277\353u\253\377\315\327\364?t\2455\251\277\351\244\277F\267\263N\271\243\324\277\301^\212i\275\377\357\277\234V\034\364`\247\371?\020\200\0013\246\307\364\277\'\027\2225\356m\375?y\025\272\346\274\274\361?\306_t\2711\305\362\277v6!A[\236\370?\314/{\010+\354\362\277\3622~\225&\001\275?\377\017\355E\272R\364\277\300N\322\013\342A\325?\016\324\0053|\266\263\277\376\266\217\301\333\260\322\277c\325p\221\030\370\274\277\021\327v\371\010\322\374?Nhp\351n\025\341?D\324\340\\\242,\265\277}\232aj\366\220\305?7(U\255\211y\340?>\016\001|\260\271\321?\364\260\257\356\374\365\372\277Cjl\305}\271\356?P\016J\337g6\322?\247h\335\331\003\205\343?\2546\374j\201\024\372?\017\370\250k\310\036\332\277\220\034\341\212Z\306\340\277\207\234<\331\376\207\340\277KH\007\375\327\005\341?4=\333\364c8\345\277(3Y\277Lw\276?HinWv\347\347?\357\\ T\035U\343\277\341\351Z#\215\013\354?\2267|\215\362\324\326\277\2438\303^\261#\336\277z\334\305Nu*\340\277K\316w\006:\027\322?\030ll\n`:\310\277Q\246Z\004!\235\367?\032O?\374v\261\327?\003\221\217e\035c\373\277:\336\346\000^X\354\277v\234\363uG\013\340\277\301^\212i\275\377\357\277\373]g%\334\243\352\277m\345w\322\376f\361?\244\353\021\005\270\017\305\277qh\002\260\335\016\342?u\335\303\274|\374\346\277\332\246\351j\023\250\256\277\2601\\\232A<\264?\363\234\362,Kt\343\277\355\017\244\342\002\326\363\277-\036pv\324\372\353\277Y\327\232\206\346\304\376?e\375\343E\\\217\346\277\334\235\2477\233\311\351\277\211k$\360\244T\304\277\357l\330\261\370\022\316\277c\325p\221\030\370\274\2773~\253;\231)\354\277\223\325\203cG\235\014@Nx(GJ\323\333\277NpL\230\\t\366\277\334\235\2477\233\311\351\277q\340\251\350\377e\367\277\201\017#w\225~\332?\366\233^\217\001\314\317?\262\3052sEJ\363?\270\231>&\0255\300?\251O\207\0262\227\333?Q\036\002=C\364\354\277\270\017\311\270\334_\362\277\351UB\0237\310\364?\223\316\233\223\027\n\324?\260u\332d\361g\r@\3147W\267\030K\330\277\326\203\000\024\301\206\000@\361\366\0307RS\322\277\320\270\371\326{[\337\277\340252o\204\274?\323\035\003\206?\213\351\277d\337b\027A\027\360\277\021\317\232J\033s\327?\312e\223\0039\033\016@\326\317\275\216\374\316\334?gj\376\213\354\262\357?O7X\000\025\342\324\277\266}\254\204\225\300\350\277h\324r#\021&\266\277\213\217\222@\022(\361\277\223\316\233\223\027\n\324?#\264\313\352\254\270P?\205O\365O\303\235\332?\252HK\351\222<\232\277B\233\204\256\327\354\312?z\324\273\206\310\242\266\27721]\343=\323\260?\3436\242\254\310\365\321\277\324\033}lDs\000@ews<\372}\325\277\256\310\030\237\310\263\343?\0067i[\026\204\374?h\215\236\032\0101\211\277wk\333\214\355\327\303\277/\270hY\t\371\332\277\223\316\233\223\027\n\324?K\017HMo\010\331?\355\017\244\342\002\326\363\277\361Hovp/\234\277\205\206\314A\260\003\371?\370\350\245\030=\266\345?.\277\244\206\250S\234?\332\246\351j\023\250\256\277\364\260\257\356\374\365\372\277\352\034N{\3575\343\277n\274\322$\362\246\004@\024\353\311\352\374)\301\277\246\235\314\ruS\350\277p\225\0255a~\361?\225\237kh9n\361\277\241\232\3630e\212\306?&8\304\247\255\272\332\277\010\220\221\367\025\221\364\277\345)-\374\272*\354?\254>\330\031os\357\277\204/W{M\371\360\277\035\364\357*\323q\002@4=\333\364c8\345\277\311H\006\264\333n\344?v\234\363uG\013\340\277\270\017\311\270\334_\362\277Q\036\002=C\364\354\277\310\275\360\304T\225\222?\0067i[\026\204\374?6\335^Uj\022\n@6]D\341\372G\345\277\276\250\370\025\351 \344?\004\336\013\3277\342\352\277\215v<}@:\371?\315\277\257~\366\363\362\277\230\245\307o.\343\245\277\317\351\021\300\325\216\353?\241\236\312{|%\357\277c\325p\221\030\370\274\277"
      }
    }
  }
}
node {
  name: "tensors/component_7"
  op: "Const"
  device: "/device:CPU:0"
  attr {
    key: "_output_shapes"
    value {
      list {
        shape {
          dim {
            size: 1168
          }
        }
      }
    }
  }
  attr {
    key: "dtype"
    value {
      type: DT_DOUBLE
    }
  }
  attr {
    key: "value"
    value {
      tensor {
        dtype: DT_DOUBLE
        tensor_shape {
          dim {
            size: 1168
          }
        }
