node {
  name: "global_step/Initializer/zeros"
  op: "Const"
  attr {
    key: "_class"
    value {
      list {
        s: "loc:@global_step"
      }
    }
  }
  attr {
    key: "_output_shapes"
    value {
      list {
        shape {
        }
      }
    }
  }
  attr {
    key: "dtype"
    value {
      type: DT_INT64
    }
  }
  attr {
    key: "value"
    value {
      tensor {
        dtype: DT_INT64
        tensor_shape {
        }
        int64_val: 0
      }
    }
  }
}
node {
  name: "global_step"
  op: "VariableV2"
  attr {
    key: "_class"
    value {
      list {
        s: "loc:@global_step"
      }
    }
  }
  attr {
    key: "_output_shapes"
    value {
      list {
        shape {
        }
      }
    }
  }
  attr {
    key: "container"
    value {
      s: ""
    }
  }
  attr {
    key: "dtype"
    value {
      type: DT_INT64
    }
  }
  attr {
    key: "shape"
    value {
      shape {
      }
    }
  }
  attr {
    key: "shared_name"
    value {
      s: ""
    }
  }
}
node {
  name: "global_step/Assign"
  op: "Assign"
  input: "global_step"
  input: "global_step/Initializer/zeros"
  attr {
    key: "T"
    value {
      type: DT_INT64
    }
  }
  attr {
    key: "_class"
    value {
      list {
        s: "loc:@global_step"
      }
    }
  }
  attr {
    key: "_output_shapes"
    value {
      list {
        shape {
        }
      }
    }
  }
  attr {
    key: "use_locking"
    value {
      b: true
    }
  }
  attr {
    key: "validate_shape"
    value {
      b: true
    }
  }
}
node {
  name: "global_step/read"
  op: "Identity"
  input: "global_step"
  attr {
    key: "T"
    value {
      type: DT_INT64
    }
  }
  attr {
    key: "_class"
    value {
      list {
        s: "loc:@global_step"
      }
    }
  }
  attr {
    key: "_output_shapes"
    value {
      list {
        shape {
        }
      }
    }
  }
}
node {
  name: "global_step/IsVariableInitialized"
  op: "IsVariableInitialized"
  input: "global_step"
  attr {
    key: "_class"
    value {
      list {
        s: "loc:@global_step"
      }
    }
  }
  attr {
    key: "_output_shapes"
    value {
      list {
        shape {
        }
      }
    }
  }
  attr {
    key: "dtype"
    value {
      type: DT_INT64
    }
  }
}
node {
  name: "global_step/cond/Switch"
  op: "Switch"
  input: "global_step/IsVariableInitialized"
  input: "global_step/IsVariableInitialized"
  attr {
    key: "T"
    value {
      type: DT_BOOL
    }
  }
  attr {
    key: "_output_shapes"
    value {
      list {
        shape {
        }
        shape {
        }
      }
    }
  }
}
node {
  name: "global_step/cond/switch_t"
  op: "Identity"
  input: "global_step/cond/Switch:1"
  attr {
    key: "T"
    value {
      type: DT_BOOL
    }
  }
  attr {
    key: "_output_shapes"
    value {
      list {
        shape {
        }
      }
    }
  }
}
node {
  name: "global_step/cond/switch_f"
  op: "Identity"
  input: "global_step/cond/Switch"
  attr {
    key: "T"
    value {
      type: DT_BOOL
    }
  }
  attr {
    key: "_output_shapes"
    value {
      list {
        shape {
        }
      }
    }
  }
}
node {
  name: "global_step/cond/pred_id"
  op: "Identity"
  input: "global_step/IsVariableInitialized"
  attr {
    key: "T"
    value {
      type: DT_BOOL
    }
  }
  attr {
    key: "_output_shapes"
    value {
      list {
        shape {
        }
      }
    }
  }
}
node {
  name: "global_step/cond/read"
  op: "Identity"
  input: "global_step/cond/read/Switch:1"
  attr {
    key: "T"
    value {
      type: DT_INT64
    }
  }
  attr {
    key: "_output_shapes"
    value {
      list {
        shape {
        }
      }
    }
  }
}
node {
  name: "global_step/cond/read/Switch"
  op: "RefSwitch"
  input: "global_step"
  input: "global_step/cond/pred_id"
  attr {
    key: "T"
    value {
      type: DT_INT64
    }
  }
  attr {
    key: "_class"
    value {
      list {
        s: "loc:@global_step"
      }
    }
  }
  attr {
    key: "_output_shapes"
    value {
      list {
        shape {
        }
        shape {
        }
      }
    }
  }
}
node {
  name: "global_step/cond/Switch_1"
  op: "Switch"
  input: "global_step/Initializer/zeros"
  input: "global_step/cond/pred_id"
  attr {
    key: "T"
    value {
      type: DT_INT64
    }
  }
  attr {
    key: "_class"
    value {
      list {
        s: "loc:@global_step"
      }
    }
  }
  attr {
    key: "_output_shapes"
    value {
      list {
        shape {
        }
        shape {
        }
      }
    }
  }
}
node {
  name: "global_step/cond/Merge"
  op: "Merge"
  input: "global_step/cond/Switch_1"
  input: "global_step/cond/read"
  attr {
    key: "N"
    value {
      i: 2
    }
  }
  attr {
    key: "T"
    value {
      type: DT_INT64
    }
  }
  attr {
    key: "_output_shapes"
    value {
      list {
        shape {
        }
        shape {
        }
      }
    }
  }
}
node {
  name: "global_step/add/y"
  op: "Const"
  attr {
    key: "_output_shapes"
    value {
      list {
        shape {
        }
      }
    }
  }
  attr {
    key: "dtype"
    value {
      type: DT_INT64
    }
  }
  attr {
    key: "value"
    value {
      tensor {
        dtype: DT_INT64
        tensor_shape {
        }
        int64_val: 0
      }
    }
  }
}
node {
  name: "global_step/add"
  op: "Add"
  input: "global_step/cond/Merge"
  input: "global_step/add/y"
  attr {
    key: "T"
    value {
      type: DT_INT64
    }
  }
  attr {
    key: "_output_shapes"
    value {
      list {
        shape {
        }
      }
    }
  }
}
node {
  name: "tensors/component_0"
  op: "Const"
  device: "/device:CPU:0"
  attr {
    key: "_output_shapes"
    value {
      list {
        shape {
          dim {
            size: 1167
          }
        }
      }
    }
  }
  attr {
    key: "dtype"
    value {
      type: DT_DOUBLE
    }
  }
  attr {
    key: "value"
    value {
      tensor {
        dtype: DT_DOUBLE
        tensor_shape {
          dim {
            size: 1167
          }
        }
        tensor_content: "\237\313Q2wf\360\277\237\313Q2wf\360\277\237\313Q2wf\360\277\302\210\256\242\357F\351?\237\313Q2wf\360\277\237\313Q2wf\360\277\237\313Q2wf\360\277\302\210\256\242\357F\351?\302\210\256\242\357F\351?\302\210\256\242\357F\351?\302\210\256\242\357F\351?\302\210\256\242\357F\351?\302\210\256\242\357F\351?\302\210\256\242\357F\351?\302\210\256\242\357F\351?\302\210\256\242\357F\351?\302\210\256\242\357F\351?\237\313Q2wf\360\277\237\313Q2wf\360\277\302\210\256\242\357F\351?\237\313Q2wf\360\277\302\210\256\242\357F\351?\237\313Q2wf\360\2770*\200j\263\326\004@\302\210\256\242\357F\351?\302\210\256\242\357F\351?\302\210\256\242\357F\351?\237\313Q2wf\360\277\302\210\256\242\357F\351?\237\313Q2wf\360\277\237\313Q2wf\360\277\302\210\256\242\357F\351?\302\210\256\242\357F\351?\237\313Q2wf\360\277\237\313Q2wf\360\277\302\210\256\242\357F\351?\237\313Q2wf\360\277\302\210\256\242\357F\351?\237\313Q2wf\360\277\237\313Q2wf\360\277\237\313Q2wf\360\277\302\210\256\242\357F\351?\237\313Q2wf\360\277\302\210\256\242\357F\351?\302\210\256\242\357F\351?\302\210\256\242\357F\351?\237\313Q2wf\360\277\237\313Q2wf\360\277\302\210\256\242\357F\351?\302\210\256\242\357F\351?\317m\375\0323\270\006\300\237\313Q2wf\360\277\237\313Q2wf\360\277\302\210\256\242\357F\351?\237\313Q2wf\360\277\302\210\256\242\357F\351?\302\210\256\242\357F\351?\302\210\256\242\357F\351?\237\313Q2wf\360\277\237\313Q2wf\360\277\237\313Q2wf\360\277\302\210\256\242\357F\351?\302\210\256\242\357F\351?\237\313Q2wf\360\277\302\210\256\242\357F\351?\302\210\256\242\357F\351?\237\313Q2wf\360\277\302\210\256\242\357F\351?\302\210\256\242\357F\351?\302\210\256\242\357F\351?\302\210\256\242\357F\351?\237\313Q2wf\360\277\237\313Q2wf\360\277\237\313Q2wf\360\277\302\210\256\242\357F\351?\302\210\256\242\357F\351?\237\313Q2wf\360\277\237\313Q2wf\360\277\237\313Q2wf\360\277\237\313Q2wf\360\277\237\313Q2wf\360\277\237\313Q2wf\360\277\237\313Q2wf\360\277\237\313Q2wf\360\277\237\313Q2wf\360\277\237\313Q2wf\360\277\302\210\256\242\357F\351?\237\313Q2wf\360\277\237\313Q2wf\360\277\302\210\256\242\357F\351?\302\210\256\242\357F\351?\302\210\256\242\357F\351?\237\313Q2wf\360\277\302\210\256\242\357F\351?\302\210\256\242\357F\351?\302\210\256\242\357F\351?\302\210\256\242\357F\351?\302\210\256\242\357F\351?\302\210\256\242\357F\351?\302\210\256\242\357F\351?\302\210\256\242\357F\351?\302\210\256\242\357F\351?\302\210\256\242\357F\351?\237\313Q2wf\360\277\317m\375\0323\270\006\300\237\313Q2wf\360\277\302\210\256\242\357F\351?\302\210\256\242\357F\351?\237\313Q2wf\360\277\302\210\256\242\357F\351?\237\313Q2wf\360\277\302\210\256\242\357F\351?\302\210\256\242\357F\351?\237\313Q2wf\360\277\302\210\256\242\357F\351?\237\313Q2wf\360\277\302\210\256\242\357F\351?\237\313Q2wf\360\277\237\313Q2wf\360\277\302\210\256\242\357F\351?\237\313Q2wf\360\277\237\313Q2wf\360\277\302\210\256\242\357F\351?\237\313Q2wf\360\277\302\210\256\242\357F\351?\237\313Q2wf\360\2770*\200j\263\326\004@\237\313Q2wf\360\277\237\313Q2wf\360\277\237\313Q2wf\360\277\302\210\256\242\357F\351?\302\210\256\242\357F\351?\237\313Q2wf\360\277\237\313Q2wf\360\277\237\313Q2wf\360\277\302\210\256\242\357F\351?\302\210\256\242\357F\351?\237\313Q2wf\360\277\302\210\256\242\357F\351?\302\210\256\242\357F\351?\302\210\256\242\357F\351?\237\313Q2wf\360\277\302\210\256\242\357F\351?\302\210\256\242\357F\351?\237\313Q2wf\360\277\302\210\256\242\357F\351?\302\210\256\242\357F\351?\302\210\256\242\357F\351?\302\210\256\242\357F\351?\237\313Q2wf\360\277\237\313Q2wf\360\277\237\313Q2wf\360\2770*\200j\263\326\004@\302\210\256\242\357F\351?\237\313Q2wf\360\277\302\210\256\242\357F\351?\302\210\256\242\357F\351?\237\313Q2wf\360\277\237\313Q2wf\360\277\302\210\256\242\357F\351?\302\210\256\242\357F\351?\237\313Q2wf\360\277\237\313Q2wf\360\277\237\313Q2wf\360\277\237\313Q2wf\360\277\302\210\256\242\357F\351?\302\210\256\242\357F\351?\302\210\256\242\357F\351?\237\313Q2wf\360\277\302\210\256\242\357F\351?\302\210\256\242\357F\351?\237\313Q2wf\360\277\237\313Q2wf\360\277\302\210\256\242\357F\351?\302\210\256\242\357F\351?\302\210\256\242\357F\351?\237\313Q2wf\360\277\302\210\256\242\357F\351?\237\313Q2wf\360\277\237\313Q2wf\360\277\302\210\256\242\357F\351?\302\210\256\242\357F\351?\302\210\256\242\357F\351?\237\313Q2wf\360\277\237\313Q2wf\360\277\302\210\256\242\357F\351?\302\210\256\242\357F\351?\302\210\256\242\357F\351?\302\210\256\242\357F\351?\302\210\256\242\357F\351?\237\313Q2wf\360\277\237\313Q2wf\360\277\302\210\256\242\357F\351?\237\313Q2wf\360\277\302\210\256\242\357F\351?0*\200j\263\326\004@\302\210\256\242\357F\351?\237\313Q2wf\360\277\302\210\256\242\357F\351?\237\313Q2wf\360\277\302\210\256\242\357F\351?\302\210\256\242\357F\351?\237\313Q2wf\360\277\302\210\256\242\357F\351?\302\210\256\242\357F\351?\302\210\256\242\357F\351?\237\313Q2wf\360\277\237\313Q2wf\360\277\237\313Q2wf\360\2770*\200j\263\326\004@\302\210\256\242\357F\351?\237\313Q2wf\360\277\237\313Q2wf\360\277\237\313Q2wf\360\277\237\313Q2wf\360\277\302\210\256\242\357F\351?\317m\375\0323\270\006\300\302\210\256\242\357F\351?\237\313Q2wf\360\277\302\210\256\242\357F\351?\302\210\256\242\357F\351?\302\210\256\242\357F\351?\302\210\256\242\357F\351?\302\210\256\242\357F\351?\237\313Q2wf\360\277\237\313Q2wf\360\277\237\313Q2wf\360\277\302\210\256\242\357F\351?\237\313Q2wf\360\277\237\313Q2wf\360\277\237\313Q2wf\360\277\302\210\256\242\357F\351?\237\313Q2wf\360\277\317m\375\0323\270\006\300\302\210\256\242\357F\351?\237\313Q2wf\360\277\302\210\256\242\357F\351?\302\210\256\242\357F\351?\302\210\256\242\357F\351?\302\210\256\242\357F\351?\237\313Q2wf\360\277\302\210\256\242\357F\351?\302\210\256\242\357F\351?0*\200j\263\326\004@\302\210\256\242\357F\351?\237\313Q2wf\360\277\237\313Q2wf\360\277\237\313Q2wf\360\277\237\313Q2wf\360\277\237\313Q2wf\360\277\302\210\256\242\357F\351?\302\210\256\242\357F\351?\237\313Q2wf\360\277\302\210\256\242\357F\351?\237\313Q2wf\360\277\302\210\256\242\357F\351?\237\313Q2wf\360\277\302\210\256\242\357F\351?\302\210\256\242\357F\351?0*\200j\263\326\004@\237\313Q2wf\360\277\237\313Q2wf\360\277\237\313Q2wf\360\277\302\210\256\242\357F\351?\302\210\256\242\357F\351?\237\313Q2wf\360\277\302\210\256\242\357F\351?\302\210\256\242\357F\351?\302\210\256\242\357F\351?\302\210\256\242\357F\351?\302\210\256\242\357F\351?\302\210\256\242\357F\351?\302\210\256\242\357F\351?\237\313Q2wf\360\277\237\313Q2wf\360\277\302\210\256\242\357F\351?\302\210\256\242\357F\351?\302\210\256\242\357F\351?\237\313Q2wf\360\277\237\313Q2wf\360\277\302\210\256\242\357F\351?\237\313Q2wf\360\277\302\210\256\242\357F\351?\302\210\256\242\357F\351?\302\210\256\242\357F\351?\237\313Q2wf\360\277\302\210\256\242\357F\351?\237\313Q2wf\360\2770*\200j\263\326\004@\302\210\256\242\357F\351?\302\210\256\242\357F\351?\237\313Q2wf\360\277\237\313Q2wf\360\277\302\210\256\242\357F\351?\302\210\256\242\357F\351?0*\200j\263\326\004@\302\210\256\242\357F\351?\237\313Q2wf\360\277\302\210\256\242\357F\351?\237\313Q2wf\360\277\302\210\256\242\357F\351?\302\210\256\242\357F\351?\237\313Q2wf\360\277\237\313Q2wf\360\277\237\313Q2wf\360\277\302\210\256\242\357F\351?\302\210\256\242\357F\351?\302\210\256\242\357F\351?\302\210\256\242\357F\351?\237\313Q2wf\360\277\302\210\256\242\357F\351?\302\210\256\242\357F\351?\237\313Q2wf\360\277\237\313Q2wf\360\277\237\313Q2wf\360\277\302\210\256\242\357F\351?\302\210\256\242\357F\351?\302\210\256\242\357F\351?\302\210\256\242\357F\351?\302\210\256\242\357F\351?\237\313Q2wf\360\277\237\313Q2wf\360\277\237\313Q2wf\360\277\237\313Q2wf\360\277\302\210\256\242\357F\351?\302\210\256\242\357F\351?\237\313Q2wf\360\277\302\210\256\242\357F\351?\302\210\256\242\357F\351?\237\313Q2wf\360\277\317m\375\0323\270\006\300\237\313Q2wf\360\277\302\210\256\242\357F\351?\302\210\256\242\357F\351?\302\210\256\242\357F\351?\237\313Q2wf\360\277\237\313Q2wf\360\277\302\210\256\242\357F\351?\237\313Q2wf\360\277\302\210\256\242\357F\351?\302\210\256\242\357F\351?\302\210\256\242\357F\351?\237\313Q2wf\360\277\302\210\256\242\357F\351?\302\210\256\242\357F\351?\302\210\256\242\357F\351?\302\210\256\242\357F\351?\237\313Q2wf\360\277\302\210\256\242\357F\351?\237\313Q2wf\360\2770*\200j\263\326\004@\302\210\256\242\357F\351?\302\210\256\242\357F\351?\237\313Q2wf\360\277\302\210\256\242\357F\351?\237\313Q2wf\360\277\317m\375\0323\270\006\300\237\313Q2wf\360\2770*\200j\263\326\004@\237\313Q2wf\360\277\237\313Q2wf\360\277\237\313Q2wf\360\277\302\210\256\242\357F\351?\302\210\256\242\357F\351?\237\313Q2wf\360\277\237\313Q2wf\360\277\302\210\256\242\357F\351?\237\313Q2wf\360\277\237\313Q2wf\360\277\237\313Q2wf\360\277\237\313Q2wf\360\277\302\210\256\242\357F\351?\237\313Q2wf\360\277\302\210\256\242\357F\351?\302\210\256\242\357F\351?\237\313Q2wf\360\277\237\313Q2wf\360\277\302\210\256\242\357F\351?\237\313Q2wf\360\277\302\210\256\242\357F\351?\237\313Q2wf\360\277\237\313Q2wf\360\277\302\210\256\242\357F\351?\237\313Q2wf\360\277\237\313Q2wf\360\277\302\210\256\242\357F\351?\237\313Q2wf\360\277\302\210\256\242\357F\351?0*\200j\263\326\004@\237\313Q2wf\360\277\237\313Q2wf\360\277\302\210\256\242\357F\351?\302\210\256\242\357F\351?\302\210\256\242\357F\351?\237\313Q2wf\360\277\302\210\256\242\357F\351?\237\313Q2wf\360\277\237\313Q2wf\360\277\302\210\256\242\357F\351?\237\313Q2wf\360\277\237\313Q2wf\360\277\302\210\256\242\357F\351?\237\313Q2wf\360\277\237\313Q2wf\360\277\237\313Q2wf\360\277\237\313Q2wf\360\277\302\210\256\242\357F\351?\302\210\256\242\357F\351?\302\210\256\242\357F\351?\302\210\256\242\357F\351?\237\313Q2wf\360\277\237\313Q2wf\360\277\302\210\256\242\357F\351?\302\210\256\242\357F\351?\237\313Q2wf\360\277\302\210\256\242\357F\351?\237\313Q2wf\360\277\302\210\256\242\357F\351?\237\313Q2wf\360\277\237\313Q2wf\360\277\302\210\256\242\357F\351?\302\210\256\242\357F\351?\302\210\256\242\357F\351?\237\313Q2wf\360\277\237\313Q2wf\360\277\302\210\256\242\357F\351?\237\313Q2wf\360\277\302\210\256\242\357F\351?\237\313Q2wf\360\277\302\210\256\242\357F\351?\237\313Q2wf\360\277\237\313Q2wf\360\277\237\313Q2wf\360\277\237\313Q2wf\360\277\237\313Q2wf\360\277\237\313Q2wf\360\277\237\313Q2wf\360\277\237\313Q2wf\360\277\302\210\256\242\357F\351?\237\313Q2wf\360\2770*\200j\263\326\004@0*\200j\263\326\004@\302\210\256\242\357F\351?\237\313Q2wf\360\277\237\313Q2wf\360\277\237\313Q2wf\360\277\317m\375\0323\270\006\300\302\210\256\242\357F\351?\237\313Q2wf\360\277\302\210\256\242\357F\351?\237\313Q2wf\360\277\302\210\256\242\357F\351?\302\210\256\242\357F\351?\237\313Q2wf\360\277\237\313Q2wf\360\277\302\210\256\242\357F\351?\302\210\256\242\357F\351?\302\210\256\242\357F\351?\302\210\256\242\357F\351?\237\313Q2wf\360\2770*\200j\263\326\004@\237\313Q2wf\360\277\302\210\256\242\357F\351?\302\210\256\242\357F\351?\237\313Q2wf\360\277\302\210\256\242\357F\351?\302\210\256\242\357F\351?\237\313Q2wf\360\277\237\313Q2wf\360\277\302\210\256\242\357F\351?\237\313Q2wf\360\277\237\313Q2wf\360\277\237\313Q2wf\360\277\237\313Q2wf\360\277\302\210\256\242\357F\351?\237\313Q2wf\360\277\302\210\256\242\357F\351?\302\210\256\242\357F\351?\237\313Q2wf\360\277\302\210\256\242\357F\351?\302\210\256\242\357F\351?\237\313Q2wf\360\277\237\313Q2wf\360\277\237\313Q2wf\360\277\302\210\256\242\357F\351?\237\313Q2wf\360\277\237\313Q2wf\360\277\237\313Q2wf\360\277\237\313Q2wf\360\277\302\210\256\242\357F\351?\302\210\256\242\357F\351?\237\313Q2wf\360\277\237\313Q2wf\360\277\302\210\256\242\357F\351?\302\210\256\242\357F\351?\302\210\256\242\357F\351?\302\210\256\242\357F\351?\237\313Q2wf\360\277\237\313Q2wf\360\277\302\210\256\242\357F\351?\302\210\256\242\357F\351?\237\313Q2wf\360\277\237\313Q2wf\360\277\237\313Q2wf\360\277\237\313Q2wf\360\277\237\313Q2wf\360\277\302\210\256\242\357F\351?\237\313Q2wf\360\277\237\313Q2wf\360\277\302\210\256\242\357F\351?\302\210\256\242\357F\351?\237\313Q2wf\360\277\302\210\256\242\357F\351?\302\210\256\242\357F\351?\237\313Q2wf\360\277\237\313Q2wf\360\277\237\313Q2wf\360\277\237\313Q2wf\360\277\302\210\256\242\357F\351?\237\313Q2wf\360\277\302\210\256\242\357F\351?\302\210\256\242\357F\351?\302\210\256\242\357F\351?\302\210\256\242\357F\351?\302\210\256\242\357F\351?\302\210\256\242\357F\351?\237\313Q2wf\360\277\302\210\256\242\357F\351?\302\210\256\242\357F\351?\302\210\256\242\357F\351?\302\210\256\242\357F\351?\237\313Q2wf\360\277\302\210\256\242\357F\351?\302\210\256\242\357F\351?\302\210\256\242\357F\351?\302\210\256\242\357F\351?\237\313Q2wf\360\277\237\313Q2wf\360\277\237\313Q2wf\360\277\237\313Q2wf\360\277\237\313Q2wf\360\277\302\210\256\242\357F\351?\237\313Q2wf\360\277\302\210\256\242\357F\351?\237\313Q2wf\360\277\302\210\256\242\357F\351?\237\313Q2wf\360\277\302\210\256\242\357F\351?\302\210\256\242\357F\351?\302\210\256\242\357F\351?\302\210\256\242\357F\351?\302\210\256\242\357F\351?\302\210\256\242\357F\351?\237\313Q2wf\360\277\237\313Q2wf\360\277\302\210\256\242\357F\351?\302\210\256\242\357F\351?\302\210\256\242\357F\351?\302\210\256\242\357F\351?\237\313Q2wf\360\277\302\210\256\242\357F\351?\302\210\256\242\357F\351?\302\210\256\242\357F\351?\237\313Q2wf\360\277\302\210\256\242\357F\351?\237\313Q2wf\360\277\302\210\256\242\357F\351?\237\313Q2wf\360\277\302\210\256\242\357F\351?\302\210\256\242\357F\351?\302\210\256\242\357F\351?\302\210\256\242\357F\351?\302\210\256\242\357F\351?\237\313Q2wf\360\277\302\210\256\242\357F\351?\302\210\256\242\357F\351?\302\210\256\242\357F\351?\302\210\256\242\357F\351?\302\210\256\242\357F\351?\302\210\256\242\357F\351?\237\313Q2wf\360\277\302\210\256\242\357F\351?\237\313Q2wf\360\277\237\313Q2wf\360\277\237\313Q2wf\360\277\302\210\256\242\357F\351?\302\210\256\242\357F\351?\237\313Q2wf\360\277\302\210\256\242\357F\351?\237\313Q2wf\360\277\302\210\256\242\357F\351?\237\313Q2wf\360\277\237\313Q2wf\360\277\237\313Q2wf\360\277\237\313Q2wf\360\277\237\313Q2wf\360\277\302\210\256\242\357F\351?\237\313Q2wf\360\277\302\210\256\242\357F\351?\302\210\256\242\357F\351?\302\210\256\242\357F\351?\237\313Q2wf\360\277\302\210\256\242\357F\351?\302\210\256\242\357F\351?\302\210\256\242\357F\351?\237\313Q2wf\360\277\302\210\256\242\357F\351?\302\210\256\242\357F\351?\237\313Q2wf\360\277\302\210\256\242\357F\351?\302\210\256\242\357F\351?\302\210\256\242\357F\351?\302\210\256\242\357F\351?\237\313Q2wf\360\277\237\313Q2wf\360\277\237\313Q2wf\360\277\302\210\256\242\357F\351?\302\210\256\242\357F\351?\302\210\256\242\357F\351?\302\210\256\242\357F\351?\237\313Q2wf\360\2770*\200j\263\326\004@\302\210\256\242\357F\351?\302\210\256\242\357F\351?\237\313Q2wf\360\277\237\313Q2wf\360\277\302\210\256\242\357F\351?\302\210\256\242\357F\351?\237\313Q2wf\360\277\237\313Q2wf\360\277\302\210\256\242\357F\351?\302\210\256\242\357F\351?\237\313Q2wf\360\277\302\210\256\242\357F\351?\302\210\256\242\357F\351?\237\313Q2wf\360\277\237\313Q2wf\360\277\302\210\256\242\357F\351?\302\210\256\242\357F\351?\302\210\256\242\357F\351?\302\210\256\242\357F\351?\302\210\256\242\357F\351?\302\210\256\242\357F\351?\237\313Q2wf\360\277\302\210\256\242\357F\351?\302\210\256\242\357F\351?\302\210\256\242\357F\351?\237\313Q2wf\360\277\237\313Q2wf\360\277\237\313Q2wf\360\277\237\313Q2wf\360\277\302\210\256\242\357F\351?\237\313Q2wf\360\277\302\210\256\242\357F\351?\302\210\256\242\357F\351?\302\210\256\242\357F\351?0*\200j\263\326\004@\302\210\256\242\357F\351?\302\210\256\242\357F\351?\302\210\256\242\357F\351?\302\210\256\242\357F\351?\237\313Q2wf\360\277\302\210\256\242\357F\351?\302\210\256\242\357F\351?\302\210\256\242\357F\351?\302\210\256\242\357F\351?\237\313Q2wf\360\277\302\210\256\242\357F\351?\237\313Q2wf\360\277\237\313Q2wf\360\277\302\210\256\242\357F\351?\237\313Q2wf\360\277\237\313Q2wf\360\277\302\210\256\242\357F\351?\302\210\256\242\357F\351?\237\313Q2wf\360\277\237\313Q2wf\360\277\302\210\256\242\357F\351?\237\313Q2wf\360\277\237\313Q2wf\360\277\302\210\256\242\357F\351?\237\313Q2wf\360\277\237\313Q2wf\360\277\237\313Q2wf\360\277\302\210\256\242\357F\351?\237\313Q2wf\360\277\302\210\256\242\357F\351?\237\313Q2wf\360\277\237\313Q2wf\360\277\237\313Q2wf\360\277\302\210\256\242\357F\351?\302\210\256\242\357F\351?0*\200j\263\326\004@\302\210\256\242\357F\351?\302\210\256\242\357F\351?\237\313Q2wf\360\277\302\210\256\242\357F\351?\302\210\256\242\357F\351?\302\210\256\242\357F\351?\302\210\256\242\357F\351?\302\210\256\242\357F\351?\302\210\256\242\357F\351?\237\313Q2wf\360\277\302\210\256\242\357F\351?\237\313Q2wf\360\277\302\210\256\242\357F\351?\237\313Q2wf\360\277\237\313Q2wf\360\277\302\210\256\242\357F\351?\302\210\256\242\357F\351?\302\210\256\242\357F\351?\237\313Q2wf\360\277\302\210\256\242\357F\351?\302\210\256\242\357F\351?\237\313Q2wf\360\277\237\313Q2wf\360\277\302\210\256\242\357F\351?\237\313Q2wf\360\277\237\313Q2wf\360\277\302\210\256\242\357F\351?\237\313Q2wf\360\277\302\210\256\242\357F\351?\302\210\256\242\357F\351?\302\210\256\242\357F\351?\237\313Q2wf\360\277\237\313Q2wf\360\277\302\210\256\242\357F\351?\302\210\256\242\357F\351?\302\210\256\242\357F\351?\302\210\256\242\357F\351?\237\313Q2wf\360\277\302\210\256\242\357F\351?\302\210\256\242\357F\351?\237\313Q2wf\360\277\237\313Q2wf\360\277\302\210\256\242\357F\351?\237\313Q2wf\360\277\237\313Q2wf\360\277\302\210\256\242\357F\351?\302\210\256\242\357F\351?\237\313Q2wf\360\277\237\313Q2wf\360\277\237\313Q2wf\360\277\302\210\256\242\357F\351?\302\210\256\242\357F\351?\302\210\256\242\357F\351?\237\313Q2wf\360\277\237\313Q2wf\360\277\302\210\256\242\357F\351?\302\210\256\242\357F\351?\237\313Q2wf\360\277\237\313Q2wf\360\277\302\210\256\242\357F\351?\302\210\256\242\357F\351?\237\313Q2wf\360\277\237\313Q2wf\360\277\302\210\256\242\357F\351?\237\313Q2wf\360\277\237\313Q2wf\360\277\302\210\256\242\357F\351?\237\313Q2wf\360\277\237\313Q2wf\360\277\237\313Q2wf\360\277\302\210\256\242\357F\351?\237\313Q2wf\360\277\302\210\256\242\357F\351?\302\210\256\242\357F\351?\302\210\256\242\357F\351?\302\210\256\242\357F\351?\237\313Q2wf\360\277\302\210\256\242\357F\351?\302\210\256\242\357F\351?\237\313Q2wf\360\2770*\200j\263\326\004@\302\210\256\242\357F\351?\237\313Q2wf\360\277\237\313Q2wf\360\277\237\313Q2wf\360\277\237\313Q2wf\360\277\302\210\256\242\357F\351?\302\210\256\242\357F\351?\237\313Q2wf\360\277\302\210\256\242\357F\351?\302\210\256\242\357F\351?\302\210\256\242\357F\351?\237\313Q2wf\360\277\302\210\256\242\357F\351?\237\313Q2wf\360\277\302\210\256\242\357F\351?\302\210\256\242\357F\351?\237\313Q2wf\360\277\302\210\256\242\357F\351?\302\210\256\242\357F\351?\237\313Q2wf\360\277\302\210\256\242\357F\351?\302\210\256\242\357F\351?\302\210\256\242\357F\351?\302\210\256\242\357F\351?\302\210\256\242\357F\351?\237\313Q2wf\360\277\237\313Q2wf\360\277\237\313Q2wf\360\277\302\210\256\242\357F\351?\237\313Q2wf\360\277\237\313Q2wf\360\277\237\313Q2wf\360\277\302\210\256\242\357F\351?\302\210\256\242\357F\351?\302\210\256\242\357F\351?\302\210\256\242\357F\351?\237\313Q2wf\360\277\237\313Q2wf\360\277\302\210\256\242\357F\351?\237\313Q2wf\360\277\302\210\256\242\357F\351?\302\210\256\242\357F\351?\237\313Q2wf\360\277\302\210\256\242\357F\351?\302\210\256\242\357F\351?\237\313Q2wf\360\277\302\210\256\242\357F\351?\302\210\256\242\357F\351?\302\210\256\242\357F\351?\302\210\256\242\357F\351?\302\210\256\242\357F\351?\302\210\256\242\357F\351?\302\210\256\242\357F\351?\302\210\256\242\357F\351?\302\210\256\242\357F\351?\302\210\256\242\357F\351?\302\210\256\242\357F\351?\302\210\256\242\357F\351?\302\210\256\242\357F\351?\237\313Q2wf\360\2770*\200j\263\326\004@\237\313Q2wf\360\277\302\210\256\242\357F\351?\237\313Q2wf\360\277\237\313Q2wf\360\277\237\313Q2wf\360\277\302\210\256\242\357F\351?\302\210\256\242\357F\351?\302\210\256\242\357F\351?\302\210\256\242\357F\351?\237\313Q2wf\360\277\302\210\256\242\357F\351?\302\210\256\242\357F\351?\237\313Q2wf\360\277\302\210\256\242\357F\351?\302\210\256\242\357F\351?\237\313Q2wf\360\277\302\210\256\242\357F\351?\237\313Q2wf\360\277\302\210\256\242\357F\351?\237\313Q2wf\360\277\302\210\256\242\357F\351?\237\313Q2wf\360\277\302\210\256\242\357F\351?\237\313Q2wf\360\277\302\210\256\242\357F\351?\237\313Q2wf\360\277\237\313Q2wf\360\277\302\210\256\242\357F\351?\302\210\256\242\357F\351?\302\210\256\242\357F\351?\237\313Q2wf\360\277\237\313Q2wf\360\277\237\313Q2wf\360\277\302\210\256\242\357F\351?\237\313Q2wf\360\277\237\313Q2wf\360\277\302\210\256\242\357F\351?\302\210\256\242\357F\351?\302\210\256\242\357F\351?\237\313Q2wf\360\277\237\313Q2wf\360\277\302\210\256\242\357F\351?\237\313Q2wf\360\277\302\210\256\242\357F\351?\237\313Q2wf\360\277\302\210\256\242\357F\351?\302\210\256\242\357F\351?\302\210\256\242\357F\351?\302\210\256\242\357F\351?0*\200j\263\326\004@\302\210\256\242\357F\351?\237\313Q2wf\360\277\302\210\256\242\357F\351?\237\313Q2wf\360\277\302\210\256\242\357F\351?\237\313Q2wf\360\277\237\313Q2wf\360\277\237\313Q2wf\360\277\302\210\256\242\357F\351?\302\210\256\242\357F\351?\237\313Q2wf\360\277\302\210\256\242\357F\351?\302\210\256\242\357F\351?\302\210\256\242\357F\351?\302\210\256\242\357F\351?\237\313Q2wf\360\277\302\210\256\242\357F\351?\302\210\256\242\357F\351?\302\210\256\242\357F\351?\237\313Q2wf\360\277\302\210\256\242\357F\351?\302\210\256\242\357F\351?\237\313Q2wf\360\277\302\210\256\242\357F\351?\237\313Q2wf\360\277\302\210\256\242\357F\351?\302\210\256\242\357F\351?\237\313Q2wf\360\277\237\313Q2wf\360\277\237\313Q2wf\360\277\237\313Q2wf\360\277\237\313Q2wf\360\277\237\313Q2wf\360\277\237\313Q2wf\360\277\237\313Q2wf\360\277\237\313Q2wf\360\277\302\210\256\242\357F\351?\302\210\256\242\357F\351?\237\313Q2wf\360\277\302\210\256\242\357F\351?\237\313Q2wf\360\277\237\313Q2wf\360\277\302\210\256\242\357F\351?\302\210\256\242\357F\351?\302\210\256\242\357F\351?\237\313Q2wf\360\277\302\210\256\242\357F\351?\302\210\256\242\357F\351?\237\313Q2wf\360\277\237\313Q2wf\360\277\237\313Q2wf\360\277\302\210\256\242\357F\351?\302\210\256\242\357F\351?\302\210\256\242\357F\351?\302\210\256\242\357F\351?\237\313Q2wf\360\277\237\313Q2wf\360\277\302\210\256\242\357F\351?\302\210\256\242\357F\351?\237\313Q2wf\360\277\237\313Q2wf\360\277\302\210\256\242\357F\351?\237\313Q2wf\360\277\302\210\256\242\357F\351?\237\313Q2wf\360\277\302\210\256\242\357F\351?\237\313Q2wf\360\277\237\313Q2wf\360\277\237\313Q2wf\360\277\237\313Q2wf\360\277\302\210\256\242\357F\351?\237\313Q2wf\360\277\237\313Q2wf\360\277\302\210\256\242\357F\351?\237\313Q2wf\360\277\302\210\256\242\357F\351?\237\313Q2wf\360\277\302\210\256\242\357F\351?\302\210\256\242\357F\351?\237\313Q2wf\360\277\237\313Q2wf\360\277\237\313Q2wf\360\277\237\313Q2wf\360\277\237\313Q2wf\360\277\237\313Q2wf\360\277\302\210\256\242\357F\351?\237\313Q2wf\360\277\302\210\256\242\357F\351?\302\210\256\242\357F\351?\302\210\256\242\357F\351?\237\313Q2wf\360\277\237\313Q2wf\360\277\237\313Q2wf\360\277\302\210\256\242\357F\351?\302\210\256\242\357F\351?\237\313Q2wf\360\277\237\313Q2wf\360\277\302\210\256\242\357F\351?\237\313Q2wf\360\277\237\313Q2wf\360\277\302\210\256\242\357F\351?\237\313Q2wf\360\277\302\210\256\242\357F\351?\302\210\256\242\357F\351?\237\313Q2wf\360\277\237\313Q2wf\360\277\302\210\256\242\357F\351?\302\210\256\242\357F\351?0*\200j\263\326\004@\237\313Q2wf\360\277\237\313Q2wf\360\277\237\313Q2wf\360\277\302\210\256\242\357F\351?\237\313Q2wf\360\277\302\210\256\242\357F\351?\237\313Q2wf\360\277\237\313Q2wf\360\277\302\210\256\242\357F\351?\237\313Q2wf\360\277\317m\375\0323\270\006\300\302\210\256\242\357F\351?\302\210\256\242\357F\351?\302\210\256\242\357F\351?\237\313Q2wf\360\277\237\313Q2wf\360\277\302\210\256\242\357F\351?\302\210\256\242\357F\351?\237\313Q2wf\360\277\302\210\256\242\357F\351?\302\210\256\242\357F\351?\302\210\256\242\357F\351?\237\313Q2wf\360\277\237\313Q2wf\360\277\302\210\256\242\357F\351?\302\210\256\242\357F\351?\237\313Q2wf\360\277\237\313Q2wf\360\2770*\200j\263\326\004@\237\313Q2wf\360\277\302\210\256\242\357F\351?\302\210\256\242\357F\351?\237\313Q2wf\360\2770*\200j\263\326\004@\237\313Q2wf\360\277\302\210\256\242\357F\351?\237\313Q2wf\360\277\302\210\256\242\357F\351?\302\210\256\242\357F\351?\302\210\256\242\357F\351?\302\210\256\242\357F\351?\302\210\256\242\357F\351?\237\313Q2wf\360\277\302\210\256\242\357F\351?\302\210\256\242\357F\351?\302\210\256\242\357F\351?\237\313Q2wf\360\277\237\313Q2wf\360\277\302\210\256\242\357F\351?\302\210\256\242\357F\351?\302\210\256\242\357F\351?\302\210\256\242\357F\351?\237\313Q2wf\360\277\237\313Q2wf\360\277\237\313Q2wf\360\277\302\210\256\242\357F\351?\302\210\256\242\357F\351?\302\210\256\242\357F\351?\302\210\256\242\357F\351?\237\313Q2wf\360\277\302\210\256\242\357F\351?\237\313Q2wf\360\277\237\313Q2wf\360\277\302\210\256\242\357F\351?\302\210\256\242\357F\351?\302\210\256\242\357F\351?\302\210\256\242\357F\351?\302\210\256\242\357F\351?\237\313Q2wf\360\277\237\313Q2wf\360\277\237\313Q2wf\360\277\302\210\256\242\357F\351?\237\313Q2wf\360\277\302\210\256\242\357F\351?\237\313Q2wf\360\277\302\210\256\242\357F\351?\302\210\256\242\357F\351?\302\210\256\242\357F\351?\302\210\256\242\357F\351?\237\313Q2wf\360\277\237\313Q2wf\360\277\237\313Q2wf\360\277\237\313Q2wf\360\277\302\210\256\242\357F\351?\237\313Q2wf\360\277\302\210\256\242\357F\351?\237\313Q2wf\360\277\302\210\256\242\357F\351?\237\313Q2wf\360\277\302\210\256\242\357F\351?\237\313Q2wf\360\277\237\313Q2wf\360\277\237\313Q2wf\360\277\237\313Q2wf\360\277\302\210\256\242\357F\351?\302\210\256\242\357F\351?\237\313Q2wf\360\277\302\210\256\242\357F\351?\237\313Q2wf\360\277\237\313Q2wf\360\277\237\313Q2wf\360\277\302\210\256\242\357F\351?\302\210\256\242\357F\351?\237\313Q2wf\360\277\237\313Q2wf\360\277\237\313Q2wf\360\277\237\313Q2wf\360\277\302\210\256\242\357F\351?\302\210\256\242\357F\351?\237\313Q2wf\360\277\237\313Q2wf\360\277\302\210\256\242\357F\351?0*\200j\263\326\004@0*\200j\263\326\004@\302\210\256\242\357F\351?\237\313Q2wf\360\277\237\313Q2wf\360\277\302\210\256\242\357F\351?\237\313Q2wf\360\277\302\210\256\242\357F\351?\237\313Q2wf\360\277\302\210\256\242\357F\351?\237\313Q2wf\360\277\302\210\256\242\357F\351?\237\313Q2wf\360\277\302\210\256\242\357F\351?\302\210\256\242\357F\351?0*\200j\263\326\004@\237\313Q2wf\360\277\302\210\256\242\357F\351?0*\200j\263\326\004@\302\210\256\242\357F\351?\302\210\256\242\357F\351?\237\313Q2wf\360\277\302\210\256\242\357F\351?\302\210\256\242\357F\351?\237\313Q2wf\360\277\302\210\256\242\357F\351?\302\210\256\242\357F\351?\302\210\256\242\357F\351?\302\210\256\242\357F\351?\302\210\256\242\357F\351?\237\313Q2wf\360\277\237\313Q2wf\360\277\302\210\256\242\357F\351?\237\313Q2wf\360\277\237\313Q2wf\360\277\302\210\256\242\357F\351?\237\313Q2wf\360\277\302\210\256\242\357F\351?\302\210\256\242\357F\351?\237\313Q2wf\360\277\302\210\256\242\357F\351?\237\313Q2wf\360\277\302\210\256\242\357F\351?\302\210\256\242\357F\351?\237\313Q2wf\360\277\302\210\256\242\357F\351?\237\313Q2wf\360\277\302\210\256\242\357F\351?\237\313Q2wf\360\277\302\210\256\242\357F\351?\302\210\256\242\357F\351?0*\200j\263\326\004@\237\313Q2wf\360\277\237\313Q2wf\360\277\302\210\256\242\357F\351?\302\210\256\242\357F\351?\237\313Q2wf\360\277\302\210\256\242\357F\351?\302\210\256\242\357F\351?\237\313Q2wf\360\277\237\313Q2wf\360\277"
      }
    }
  }
}
node {
  name: "tensors/component_1"
  op: "Const"
  device: "/device:CPU:0"
  attr {
    key: "_output_shapes"
    value {
      list {
        shape {
          dim {
            size: 1167
          }
        }
      }
    }
  }
  attr {
    key: "dtype"
    value {
      type: DT_DOUBLE
    }
  }
  attr {
    key: "value"
    value {
      tensor {
        dtype: DT_DOUBLE
        tensor_shape {
          dim {
            size: 1167
          }
        }
        tensor_content: "o\376<t\0307\370\277\245\335\300D\214)\265?\246/FH+\256\355\277l\240\260\025!\023\322?wq\301\251\020i\364\277\246\202X\276e\364\372\277\360N4\332\020\261\352?\261\266l~\027\327\007@{\006-\351j\252\353?\257\355\204o=\353\327?\245\207\024!\340\305\262\277\234+\007\036E\353\312\277*\3207\321y\361\345?=\2060\"\247\362\242?\207\317\345\3709\305\356?\345\006\002\350,\304\317?:\245}~\227\344\330?6W\241(\3416\361\277\376\245\013\275\'\363\354\277\032\320\033\022\206\314\261\277~\204\233\263q[\314?I\375g\026@!\302?\374_\013\272Sm\344\277*B\\\037\255\346\007@\223\202\266\274{\226\304\277\007\006D\3108E\343\277\031i\250H\236_\325\277|\304\3350\003\325\363\277\260\177\316J\373\211\305?7\'\017\264\2203\350\277\n&\254v>\013\340\277(7%Xk%\360?\246D4\016t\226\321?\276\313\261\207K\'\361\277&\036\206G\266\214\353\277:g\333[\201~\226\277h\352\323\203\3476\311\277\256$\340\201\336\033\351?]\021kk\327\245\347?>\335q\210\300H\363\277\337\215\311=\252\253\344\277?\246\026v\037\030\362?\364g\026\014Af\000\3007 F\026@\006\360?(7%Xk%\360?q\223$\345\260\213\317\277zt\343\r\255\013\356\277\211zJ\026\353\017\361\277\030Q\034\355z\301\367?|\n\\\331I\272\256\277\205F\001\373\220w\220?l\213\302O\330*\356\277\013\243\007\214\263\301\331\277\301\362\342\323\241\032\326\277T0\254B\333%\331\277m\346\260\030\365\230\332?O\361\356\232a\224\326?*\231\334\276\330\300\324? \225\235\224\362\375\341\277\265X-RS\365\364\277\224y\317Q\213M\376\277\356\320\305\017\n\000\332\277Q\010\354\017\265$\375?\r\337\244C\305\374\244\277\027.\234\353\220~\363?\217\271\213\214&\216\363?\322\352\250\202\251P\355\277\024\0164=\213\270\366?\006\022\307T\317\367\360?OWO\257\267\006\274\277eD)U|q\374?\335\377\252jb\204\345?\331\215\277,\362\205\362\277\033xM9\321\264\354\277y\210\276\036d\371\332\277y\017\3212\340\326\000@\350Y\232\240]C\357\277$+\230\272\034M\360\277!\270\035\226\334@\346\277J\246*\230\217c\366\277\375\302Q\007\221\026\360\277\214}lz\207\262\352\277A\375\3316\306\016\360\277M\306\222F\225)\363\277\n\021\276\260\365\"\314\277s\342\215\255\002\373\273?\336\"+lL\307\351?+\"\275\324\030v\276\277|\304\3350\003\325\363\277O\255\373\322cj\276?4S\360\335t\206\340?\214\037f^\206\307\306\277\315\327RG\nK\365\2773\305\024,\250{\002@}\362Q\330\263\274\336?\201R\202FA5\265\277N\330\321\3449\234\257?\303 \331\325\337\242\256?\340\000\302\007]\027\241\277\007X\307W\243}\371?vNA\250&&\360\277|\n\\\331I\272\256\277b\356\364z\245\210\365?\330}\213U\357\"\364\277k\302\035by[\337\277,\261h\032\374^\362\277/\330\231fRR\327\277\323|\362]g\357\352?\240\371o\013\242e\361\277\246D4\016t\226\321?\202\261\233\027\324\032\340\277\376\245\013\275\'\363\354\277\304t\200\216\207\333\251\277p\337m\275\232\244\324\277\353\305K\'M\"\341?\241\034\360\014\214\250\365\277Q\246\270w\tv\310?|\304\3350\003\325\363\277B Z8\260Q\364\277\326\372`(n\240\313?\332\260?.\334\310\366\277B Z8\260Q\364\277\016D\366W\244\265\356?\366\216\0047\034=\344?h\352\323\203\3476\311\277\315\327RG\nK\365\277/z\222\0207A\002@?\355\245_\303\253\361\277\000\001\372\205Da\331?j\230\324\302>\353\362\2773\216v\370\213.\300?\324\237r_Q2\357?\216zT\'\2435\343\277\314\220\303]f\267\365?yQc\014\303\310\351\277\253\203\361\265\355\'\324\277_\316\214\314\237\302\370?\n\234>\356b\224\361\277\346U\351U\361\222\376?\256$\340\201\336\033\351?\277|\r;\002u\003@fU\354\022O\342\361\277\213\270\362\224\236Z\332?\361\206\242\241C\334\302?s\356\022\256\315\371\353\277\001\247a\2234\n\005@\t<\224\302\313T\315?\315Q\020\307\244K\305?>BAB\022a\357?|\304\3350\003\325\363\277BoA\246t \303\277\215\261\2579Df\324\2778y\222C\373k\376?|\n\\\331I\272\256\277h\231eP\221\234\205\277\217\014\236\002a\324\340?\242\033a&\274\232\376?\030F(G\264\034\321\277\013\322\n\0324\267\373\277\272\217\222u\254K\330\277\206\364\203\307\303#\341\277N\226\000\322D&\352\277\3038\343\326u\240\336\277\310\326\271O\202\027\354?\003\303[\030I<\342\277t\200\\\211\213\230\351?\016!vV\272r\352?\320\205\226\247\334\033\000@,\261h\032\374^\362\277\266\252\260\341\275-\353?9\334\330\2208\025\352?>\335q\210\300H\363\277\2233\317N\267\307\365\277T\312K.\205\263\263?%*\t\324L?\371?\203\241\353\016\223\244\301?\333\343q\254;\316\253\2776;\352\304G!\325\277\021\343\327\350\276M\323\277\274\2367f\337\240\357\277BoA\246t \303\277v\260t@\322\324\304\277\335]\261\206co\311?\310\t\352Y\255\320\316\277\262$\3446\371\\\224?\314\277\306\353\346\254\327?t\367}\347\177/\362?\223#\241\323QI\236\277\360\364X\306\205=\325?\355\255E\016 \275\325\277\206+\337\331dT\322\277\233\246S\204\257\371\361\277US,D\305h\335\277\216zT\'\2435\343\277Sk2]\362\315\350?f\272\273\314\240\372\355?\346\360\031\234\237z\342\277\311x\2633\201,\330\277$Y\014b\3154\333?=g\337\020\234\277\341\277\'\027?\004\363\377\240?I\322\221\004j\357\300\277S\r,A\361\342\324\277j&\260t\013\366\000@y\210\276\036d\371\332\277\246^I\326\253\243\377?yQc\014\303\310\351\277j\230\324\302>\353\362\277\267\342\036\251\360X\303?\351\310cz1\237\350?\031aP\304}$\366?\247\t\256\363\\\356\341\277\305\333\357o\006\260\341\277\227F%\212V\315\355\277hY\235]\273\222\322\277\014`\'yG\222\270?D\265A\251H\246\313\277\n&\254v>\013\340\277\310U32\227\351\323\277\255\256M\n\272\222\367?\345\006\002\350,\304\317?\246{\217 \025\307\342?d\032\340\265A\001\320?\232\345\006\033qe\302\277\234\370\326\023\0322\350?|NK\271\336K\342\277|\304\3350\003\325\363\277\370o5\200\236\252\360\277b\277\361\354$\223\343\277\317\n\007 \367\360\367\277Q7\357\2355\032\337?}\264\257\265\235V\234\277|\304\3350\003\325\363\277\002_\206\344;\205\377\277\215\017\266UEQ\350?\225\310\266\277O\034\315\277\310\036\330\037\366\270\342\277\340\000\302\007]\027\241\277\356\222\241_\030\242\360?\355\2709\264\346a\374?o\376<t\0307\370\277o\214\030&\345A\006@\333\313g\253\245\320\333?\313M`\266R\301\005@\267\267H\227\032\'\302\277\177\310\216{o\205\324\277\223\202\266\274{\226\304\277A\375\3316\306\016\360\277\220\300T*w\273\353\277\252\262\364Cn\035\366\277\252keZ\312\211\366?x\013c\t\357B\341\277$\370\351=\315\213\224\277\376\324\016K\250\350\376?\343\320\261\355\231\264\345\277dt\273\311\314t\345?\0242C%E\t\362\277\276\371%/\374\016\334?\"5y\253Q\367\337\277w-\317\033-e\r@\203\'.\217\370\243\361\277\021\254|\326\035\035\342\277j\230\324\302>\353\362\277 \253\205\340\177G\317?\342.\270\t\233\237\331?\311AX!\340\373\346\277\355\255E\016 \275\325\2770?\r0:\277\263\277\311\274\246\373~V\260\277v\260t@\322\324\304\277I0\230 k\332\344\277\2560e\202\251\032\271\277\216zT\'\2435\343\277\013l\254y\022\221\350\277E\355\257p{\321\343\277\212\357M\247?\213\353?\024\373\347\022\244\330\360?\335\377\252jb\204\345?\274\366\005?\224\270\264\277\376\245\013\275\'\363\354\277\326\372`(n\240\313?\246\202X\276e\364\372\277\305\266Q\241|Q\357?\241\252\313\276X\263\003@Ww\277\372@\246\330?\322\352\250\202\251P\355\27713\210/o\300\343?\026\022\345\207\367h\347\277?s\347\245\016\205\000@\\s\234\217N\010\272?]\267\217WL2\322?B Z8\260Q\364\277\235\275P\371\002\212\330\277\233\202D\234\365\250\366?\354\212\305\0146z\321\277\007\035\376\033\021\271\010@\341\0138\010\261\\\325?j\230\324\302>\353\362\277j9=L9\246\265?>\212_\022\206\002\346\277\214\037f^\206\307\306\277\301si\361\214H\356?o\353\360I1W\362\277\304\365\002\304\tq\275?/\330\231fRR\327\277\007\276%\370\304\243\354?Uh\032\n\016Q\341?\301\352\212O\201\337\366?\337\274\314\313*\241\366?.\344\034\363\350\004\365\277\266P\325\3152\272\325?*v\\\275\356}\320?\252\262\364Cn\035\366\277,\261h\032\374^\362\277Wl\313Tz\001\362\277\246\236\017\"\377\t\347?x\303D9{\241\352?\373<\213\270i*\340\277\304t\200\216\207\333\251\277\376\245\013\275\'\363\354\277\260T\3708%X\304\277Z9!\215E\201\341\277S\r,A\361\342\324\277|\304\3350\003\325\363\2774\324v\373_\264\310?\335]\261\206co\311?\276\313\261\207K\'\361\277\337\347\244Q5\037\332\277\370K&\230\344Y\365?~\245\016z\205B\320\277=g\337\020\234\277\341\277\312d\330\"\312>\353\277\225\225\206\265$c\352?S\r,A\361\342\324\277 \200\257\316\251\025\316\2774\007\247\005\213m\353\277\247\301\217#\351L\353?\361}9\334\305\362\276\277\227#\245\210l\212\351\277\2654\036j\231\244\371?\033\215;\377\031\235\320?C_\221\2353\252\344?\021\254|\326\035\035\342\277\204U\2426\251\213\334?\332\016H\276\021\000\275\277\355.\314+\013\353\355?\217\014\236\002a\324\340?\370o5\200\236\252\360\277\317\270\203\220\214\270\321\277\277\021\262\212\037\255\371\277A\246\233~\373*\003@\262\253\272\277\261(\001@\271(\037\254\304\336\313?\304\365\002\304\tq\275?gE\276\227\351c\232\277S)\343\244\212\370\360\277\333\235\363\003\365\350\360\277\200\264\263j\270\227\347\277@\nC\212$\207\026@\010\366\223\277\367\316\304?A\375\3316\306\016\360\277\2127lw\263,\342\277\335]\261\206co\311?\350R\321\002\r\026\367?\370o5\200\236\252\360\277|\304\3350\003\325\363\277\330F0CN\362\362?k\302\035by[\337\277j\230\324\302>\353\362\277\036\353\307]\021\301\366\277,\201\326\245\253[\351\277l\240\260\025!\023\322?=\236:#=\360\322\277\243\216W|:\272\310\277\205\023S~A\266\364?7\'\017\264\2203\350\277|\304\3350\003\325\363\277\024aF\263\305\376\343?\375\302Q\007\221\026\360\277\001\223Ca\002\000\307?\"\333\235\227\306\203\352\277\204J\256\220\342\346\365\277;\273\202\024)\267\201\277\221\343\324+a\376\357\277\337\201D=\337\254\264?\252\341\367\321\356\022\350?\346f\254\023\304\003\364\277k\343\220(\215B\263\277+\240\245\\)\356\374?m\346\260\030\365\230\332?[\\\241\216/\304\345\277\321\343\337\344X#\365?S)\343\244\212\370\360\277\210\251M\244k\005\343?tI\001w\352g\330?s\264\032@l9\002@o\253*\376\335\360\352\277\227\222nb@\346\342?\216zT\'\2435\343\277~\245\016z\205B\320\277}\362Q\330\263\274\336?\373\364l\350\365\210\351?6\004\217\262\246\360\343\277yQc\014\303\310\351\277\223\340\274\330|\201\350\277|\304\3350\003\325\363\277\335\256\037\272\271\t\215?\232\345\006\033qe\302\277\207\370\361\360\264\267\000@\321!\004\225J\201\336\277\024\025\375\332\333\345\356\277\317\347\206\036\r\256\363\277\320\323\253\rV\300\366?\240\004d\261h\n\330?\014\306\207\215\235\004\336\277W\256\032\r\342\326\351?\273X7c\013\033\347\277\350\245\343xG\\\344?\360\364X\306\205=\325?\376\245\013\275\'\363\354\277!p\377\305h\237\357?h\025\252\225\275h\312?\235\275P\371\002\212\330\277\352\264\210iz\261\333?\342\2551\354\257q\341\277tI\001w\352g\330?U\034\3211$8\354\277v\260t@\322\324\304\277\021\254|\326\035\035\342\277yJ\232nr\233\361?|\304\3350\003\325\363\277\335\220\341\220\216(\354\277\3352\333t\215=\310\277s\356\022\256\315\371\353\277\000\243\363iCv\345\277\246\202X\276e\364\372\277q\250\022\253\371s\343\277\226\270\006\267\016\246\356?e=`\267+D\324?\3476\032\237s\000\353\277\370\020]\\R\225\004@\322$\214\367sO\025@\230[\023P\237\265\321?,z\r\010[.\361?\214\037f^\206\307\306\277T\326\320.P\262\343\277s\356\022\256\315\371\353\277\243~\247s\371C\352?EG\213\204\006E\331\277\226\000%\207\202G\345\277fU\354\022O\342\361\277\303M\321\234\276\210\342?\376\272\371\202p\333\320?G3\260sOW\354\277(uI\010]\203\331\277l\372\213)\254\206\347? \372lND\026\376?\342\3344z0g\363?\260\316\265\270\277X\364?s\356\022\256\315\371\353\277\327X\3652=\021\020@\220\023g\240\261\001\371\277\321\366+\017@\003\373?\203\241\353\016\223\244\301? \200\257\316\251\025\316\277\033\215;\377\031\235\320?\003{=H\325\232\353?\364\020\226l\025\214\323\277r%n\300n*\335\277N\330\321\3449\234\257?\315\327RG\nK\365\277\376\245\013\275\'\363\354\277Wl\313Tz\001\362\277\007|\326?]\316\364\277\341B\223\032R\215\346?\366\037;]H\341\352\277\350*\225\236\250\001\273?\260\320<~Q$\211?\243\375 V\016\026\322\277\275\204\"\236\247\223\361?\027\223k\245\342\226\337?\243\375 V\016\026\322\277d\005\362\357\370\030\354\277F\0200re\024\350\277P\370\2678\262\301\376?o\253*\376\335\360\352\277\310\t\352Y\255\320\316\277\261\025E\242c\354\363\2773\344&\004\241*\347\277\223#\241\323QI\236\277\261\346A\024\343\366\321\277R\374h\203\036r\357\277\215\261\2579Df\324\2772y\2102CF\354?\333\250\347\251\273\215\327?\r\211\370\037\031\231\222\277\301\307\nN\227\234\362?\204\367\233\032\250\240\350\2770\241>T\261!\346\277\276Eo\007\346\'\301?zm\032p\\\336\365?\346f\254\023\304\003\364\277K\266^o\222\306\364\277\254\336\337~\n\226\340? \253\205\340\177G\317?\215\216/8Z#\320\277\305\\v\215\361\335\331?N\360\333\345\317\231\337\2771\347>W\205\247\356\277#ylsO!\270\277\243\216W|:\272\310\277\262$\3446\371\\\224?\333\250\347\251\273\215\327?f`\340\270\025\207\330?\253\203\361\265\355\'\324\277tI\001w\352g\330?\256\233\001\340\322\262\361?\225\335\244\205\230\004\341\277p=t\331\233\217\350?\325h\027M\260\001\336?\305\\v\215\361\335\331?-q&\235j\345\312?\366o\263%\021\n\243\277\350*\225\236\250\001\273?\036\230\265\347\326z\351\277\303\026v\212\035X\321?O\316n\231wQ\322?:g\333[\201~\226\277\037\314\370\246\223.\323\277\371\235\251\'O\222\333?\265-U\314Hw\321?ua\215\322\r\006\366\277\024\366\352\002\3436\n@\347/Q\001#\323\362?MTn\370a4\001@>[Z\020\321\300\261?@\266JM\"{\360?,\261h\032\374^\362\277\341\350\267\006\307\031\321?~\245\016z\205B\320\277j\230\324\302>\353\362\277\377\335y\204Z\036\325?\216\315f\235\335{\360\277\331\274\302\272r{\344?\330\204T\363?P\334\277\332\016H\276\021\000\275\277\221\343\324+a\376\357\277\267\226\325\320\006@\336?\260\177\316J\373\211\305?\266\362\316\2611\317\341\277\271w\006\032\211\255\372?B\315G\302u\013\347\277\263\356\035g\305\036\361?^\342g\335V\260\365\2770\241>T\261!\346\277jd\023^\017\330\246?|\n\\\331I\272\256\2778\226\330\215d\217\341?\372\321\354\346\013F\345?\\\177!\220\031\007\352\277\024aF\263\305\376\343?\315\363\t\253\243`\341?{\254Q\325\3376\326?f`\340\270\025\207\330?Z9!\215E\201\341\277 \253\205\340\177G\317?\244+\225\375\276\375\374?Zp|\237\346\261\322\277\263,B\027\267|\332\277\271w\006\032\211\255\372?\032\320\033\022\206\314\261\2770\241>T\261!\346\277\202\017\2423\325\005\324?\232\345\006\033qe\302\277\364\331:Zt[\342\277?\034\251\355C\241\343?\376\245\013\275\'\363\354\277k\302\035by[\337\277(uI\010]\203\331\277~\204\233\263q[\314?\305d\316\021\022\031\371\277\002\005\253\320\260\021\372?\337\215\311=\252\253\344\277\263%yyfO\362\277w!KU|\214\316?s\342\215\255\002\373\273?\201R\202FA5\265\277d\005\362\357\370\030\354\277G\256\376M\356\261\265\277q\250\022\253\371s\343\277r\313\222\254\343\266\347\277o\274\355\273\260a\320\277\365\374\272[^\236\346\277T\365!@[\345\244?\261\346A\024\343\366\321\277\375\302Q\007\221\026\360\277\0242C%E\t\362\277\346f\254\023\304\003\364\277\326\234Z\014m\265\347?\3352\333t\215=\310\277\234\222xs\370\013\365?\214}lz\207\262\352\277\371\256l\345!\003\341?u\007\262\276\202\222\360?\346\360\031\234\237z\342\277\315\204@\321\317\004\350\277\355\255E\016 \275\325\277\000\001\372\205Da\331?M\315[\344\345V\333\277\311\022S\037+\272\262?\036\307\270uWp\373?\203\255o\325C}\000@;\014\361G\177Q\305\277\312\260!\373\263W\340?\204U\2426\251\213\334?\257\342\220\311vF\361\277Ww\277\372@\246\330?3B- \242\025\333?\010\252J\347\r\266\337?~\204\233\263q[\314?\365\374\272[^\236\346\277\332\337B\274\\\276\350?\273\307\000=\337v\340?\266P\325\3152\272\325?\007YV>s\213\360\277|\304\3350\003\325\363\277=\2060\"\247\362\242?\361\027\331\307o\200\331?\225\335\244\205\230\004\341\277F\0200re\024\350\277$6\214`\343\361\326?q`\364\332\205\322\354?\354Sj\372\224I\340\277\235\033W\025\004u\354?\315\363\t\253\243`\341?B Z8\260Q\364\277\236\365\276\3005\265\340?$+\230\272\034M\360\277\305\\v\215\361\335\331?%\310\325;\241\220\304?\332\337B\274\\\276\350?\323\"\027J\334{\325?\341\350\267\006\307\031\321?\261\325~V\020\206\354\277w\377\234[\335s\002@\344\225+\323\202\014\306\277\247\t\256\363\\\356\341\277\221\343\324+a\376\357\277A\375\3316\306\016\360\277X\217KVdD\366\277\207\027\004\311\255f\345\277Ww\277\372@\246\330?\257\342\220\311vF\361\277Q\331\350\2014/\353\277g\203`\272\377\311\334?\367\031\007\002e\246\220\277\t\251\247A\301\014\030@)\230\311\tG\306\335\277\r\337\244C\305\374\244\277\224\363\214\321%N\316?}\362Q\330\263\274\336?7\222jds\373\001\300\216zT\'\2435\343\277\243\216W|:\272\310\277\346\250\373\313+\331\353?;c.\306/\017\361?\207j\026?\350\254\362\277\024*\353\240$\316\322?[\\\241\216/\304\345\277\351\206\024\302\311\311\360\277\3452iT\007P\372?\310\036\330\037\366\270\342\277|\304\3350\003\325\363\277$\220gtne\354?\313\366!\376\207\335\350?,z\r\010[.\361?\260\262\376T&C\350\277\036\221\354I\206M\361?\031i\250H\236_\325\277\'\016\326>u\026\315?C_\221\2353\252\344?\305Q\202\347*9\363\277\264H\371zP\222\366\277\347mu\261\0241\334\277\016D\366W\244\265\356?\315\327RG\nK\365\277\364\010>\350\364P\364?S\r,A\361\342\324\277E@\302\346\265\027\361\277\324\211\212\023\304\350\301\277\332\2140F\"x\373?\245\005\375\250\360=\361?L\010\342\376\374\376\352?r\313\222\254\343\266\347\277\312]\017\205y\021\363?c\342q\356\016\326\347\277\333\002\303\275F\001\355?\000\322\366\367\303k\367?yQc\014\303\310\351\277\350\245\343xG\\\344?\364\020\226l\025\214\323\2771\374,\035\316\217\322?\271\375H\232\356\254\312\277\322Yr\\}\254\346?\355v\352\373~\214\344\277\317\227\020\312x\321\315?\333\235\363\003\365\350\360\277\344\300\001\345X>\307?\366o\263%\021\n\243\277\037\327\354LZ\323\371?=\2060\"\247\362\242?\246\202X\276e\364\372\277\322\377\226H\3628\321?\351\221\010h\220n\327?K\266^o\222\306\364\277CC\3329\232\224\370\277\200\323\004|\303\312\250?A\010\316\334\214\263\326?\242\271-\216\020\354\311?\032\320\033\022\206\314\261\277\375\302Q\007\221\026\360\277g\203`\272\377\311\334?\223\374s<\026\227\364?\240^?\305\363}\355?\352V\202My\306\347\277D$\013\203\034\002\325\277\270\247\230\216\331\260\343?B\351\376%\017!\363?\216zT\'\2435\343\2777\262\244\352\224f\037@wq\301\251\020i\364\277\273\307\000=\337v\340?\027\244.c\265\007\345?^\332\017Y6u\326?\032U\3157\347q\350\277&/I\005\211\375\320\277\377\335y\204Z\036\325?\352\230\321\005\341\233\377?Uh\032\n\016Q\341?\247\301\217#\351L\353?\375\334f\317\310#\336\277JS\030\"U\035\351\277\365V\226o\351\021\334\277\366\232\2117\347;\264\277\277\n\351\354\316\177\341?\273L\262b@\034\267?z\211\321\323\365\363\321?\026\022\345\207\367h\347\277%|\214c\267w\337?\364\221\034\212\000\272\353?\355\311\374q\271\322\361\2777\'\017\264\2203\350\277\232\304\223T]~\336?\340\n%S\037b\336\277v1\373]\275\002\355\277\224\363\214\321%N\316?\255\206\021\246U~\273?\205F\001\373\220w\220?$\370\351=\315\213\224\277~\204\233\263q[\314?\3216\362Z\223i\342?-\244V\247\225\236\355\277C0\216\017\263\264\362\277\010\366\223\277\367\316\304?=R\361JS\327\315\277\317\270\203\220\214\270\321\277\245f\241Z\314\336\336\277Uh\032\n\016Q\341?\266P\325\3152\272\325?|\304\3350\003\325\363\277\333\250\347\251\273\215\327?\013\341\251\256\311\'\234?\346J\365\257*\356\327\2771\310,\177\214\370\t@d\032\340\265A\001\320?(uI\010]\203\331\277\036\353\307]\021\301\366\277\214}lz\207\262\352\277\222\275<\327\222>\344\277\332\016H\276\021\000\275\277jt\305\332\204\232\367?B Z8\260Q\364\277\224\037\364=\000\332\370?n\367s\326\307\t\340?\006A\312\342O\355\322?\336\304$PK\334\325\277.\255\301\340G\324\363?\365V\226o\351\021\334\277\373\364l\350\365\210\351?\014\n{U\233.\266\277\333\235\363\003\365\350\360\277\305\\v\215\361\335\331?}\362Q\330\263\274\336?\342#\304c\324\372\362\277\305\\v\215\361\335\331?\r\337\244C\305\374\244\277\004\346\333\0313\177\346\277\010\366\223\277\367\316\304?\351\310cz1\237\350?hY\235]\273\222\322\277\022\317\374\327\007`\346\2778J\217\265zv\354\277;7\307YU\203\306?\215\216/8Z#\320\277\376\245\013\275\'\363\354\277\330*y\337\264\334\346\277\2103\273,G|\361?\037\314\370\246\223.\323\277\221\370\302\361\251\346\323?L\010\342\376\374\376\352?\346\023\232\235\211\275\346\277\375\202\213\273=\260\350\277m\346\260\030\365\230\332?T\326\320.P\262\343\277\345\006\002\350,\304\317?5\251\240\351\211\202\307\277\023\362|\331\361\242\352\277\217\014\236\002a\324\340?\214\3545T[\016\344?\343FDe\276=\367\277\262\257\346\001B\306\340\277f`\340\270\025\207\330?S\301\342h\007\312\317\277\340\n%S\037b\336\277\324\211\212\023\304\350\301\277\373<\213\270i*\340\277\376\245\013\275\'\363\354\277P\370\2678\262\301\376?\0241\264>u\373\372?Zp|\237\346\261\322\277\306\032\'\325\211\010\362?\346U\351U\361\222\376?\310\036\330\037\366\270\342\277,\261h\032\374^\362\277dt\273\311\314t\345?\246{\217 \025\307\342?\331\274\302\272r{\344?i\"BK\032b\341\277\"\333\235\227\306\203\352\277\373<\213\270i*\340\277>kM:\215S\001@\324\211\212\023\304\350\301\277\300\317b\322\267\327\321\277\2103\273,G|\361?8J\217\265zv\354\277}\362Q\330\263\274\336?\226Z\000\233\r\273\332\277B Z8\260Q\364\277\304t\200\216\207\333\251\277\334\211\030\363=\373\363?1\374,\035\316\217\322?\021\254|\326\035\035\342\277\311\274\246\373~V\260\277\022\006X\352\250\220\327\277\207\027\004\311\255f\345\277\340+\230\0313I\262\277\0312M6\375.\344\277\314\277\306\353\346\254\327?,\261h\032\374^\362\277\004\002\223}\314\224\362?\375\302Q\007\221\026\360\277\177\344E\337\010\233\360\277\003\267\326\027~=\262?:\245}~\227\344\330?\216efaZM\317\277?\355\245_\303\253\361\277\000\366\005\340}\274\362\277\207j\026?\350\254\362\277\214\333r\226\210\235\336?\002)\272\270jb\365\277k\273T\304(.\367\277\223#\241\323QI\236\277\224wH\214\371\201\211\277\217\030#\003,\323\260\277\333\235\363\003\365\350\360\277\376\245\013\275\'\363\354\277\376\245\013\275\'\363\354\277F\177\371K9p\341?\017m\002P\037\250\000@\206+\337\331dT\322\277\033\215;\377\031\235\320?\256\233\001\340\322\262\361?KCh\031\024\247\312?x]\346\230Y{\367?\014M\232\241\031\342\003@\013e\343\333\301c\360?\336\304$PK\334\325\277\304\365\002\304\tq\275?I\216\236<l\305\330?\301\307\nN\227\234\362?\337\201D=\337\254\264?,\261h\032\374^\362\277\245\014\306FAk\351\277\0015=E\001\025\343?8>\n\265\257w\274?o\376<t\0307\370\277s\342\215\255\002\373\273?\277\213o\n\272\255\311?\352#RCN\r\305?Q\246\270w\tv\310?%\310\325;\241\220\304?\336\231L\312@^\362?\333\250\347\251\273\215\327?{\220\232qF!\372?\204J\256\220\342\346\365\277\371\256l\345!\003\341?\370z)&eO\327?\304\n\363\375\206\245\363?tI\001w\352g\330?Zp|\237\346\261\322\277r:\\\206\267\022\341?\361\206\242\241C\334\302?\204\367\233\032\250\240\350\277\307Dpt\304x\356\277O\255\373\322cj\276?N\226\000\322D&\352\277,\261h\032\374^\362\277n\333\274r.\364\363\277\330*y\337\264\334\346\277gE\276\227\351c\232\277\016\214\024(\030W\345\277\304\223\321\237\222\016\353?>BAB\022a\357? \200\257\316\251\025\316\277\200\323\004|\303\312\250?[\223\374\240\320\364\326\277\026p\353\243\370S\333?>[Z\020\321\300\261?=g\337\020\234\277\341\2770\333x\251s\330\017@i|\035_\245\325\326\277)\220q\205&\213\376?D\3479K!\245f?\372b#\r8\352\353\277n\244a`\215\303\362?\365\374\272[^\236\346\277=g\337\020\234\277\341\277\2560e\202\251\032\271\277\003\303[\030I<\342\277D\340\027\273\036\330\314?Wl\313Tz\001\362\277\220\300T*w\273\353\277\321\273\243\200\364\016\271?\266P\325\3152\272\325?\221#\233w\264d\367\277\342#\304c\324\372\362\277\274IYb\025\317\000@Z$3\307\374\230\315\277\304\223\321\237\222\016\353?B Z8\260Q\364\277s\342\215\255\002\373\273?X\217KVdD\366\277\257\342\220\311vF\361\277\355v\352\373~\214\344\277\336jI<\300h\340\277\305\\v\215\361\335\331?\017\002\247\237<\340\366\277A\375\3316\306\016\360\277=g\337\020\234\277\341\277\375\302Q\007\221\026\360\277@?)\357-\344\347?\365\374\272[^\236\346\277\303\001\210\304\324o\355\277u\007\262\276\202\222\360?\032U\3157\347q\350\277x\366tC\246Z\315\277E@\302\346\265\027\361\277h\210\240\353;\210\364\277\254o\026\2456:\347\277|\304\3350\003\325\363\277\227\222nb@\346\342?\204\367\233\032\250\240\350\277\n\336\215\246\312i\351?\366;\362\300\341\366\366?p\234L\375\347\244\004@\244<X\273\221n\362\277e\337Y\233*Y\340\277\364\331:Zt[\342\277V%<k\326m\362?%\310\325;\241\220\304?jd\023^\017\330\246?\375\334f\317\310#\336\277\332\016H\276\021\000\275\277\036\230\265\347\326z\351\277}\362Q\330\263\274\336?\200\264\263j\270\227\347\277 \200\257\316\251\025\316\2770\363\301\343\033Z\374?\2671\006\027\265\'\362?9$\367`\254\266\340\277\036\353\307]\021\301\366\277\332\016H\276\021\000\275\2775\251\240\351\211\202\307\277\216zT\'\2435\343\277\032\320\033\022\206\314\261\277\243\216W|:\272\310\277S\r,A\361\342\324\277\300\332Vx~|\370?gxl\0249%\366\277\267\267H\227\032\'\302\277|\304\3350\003\325\363\277|\304\3350\003\325\363\277\010\252J\347\r\266\337?s\356\022\256\315\371\353\277\016\337&\236R\235\362\277\340+\230\0313I\262\277\223\255\214\316Q\310\305?\332\205g\250\321J\323?\276\313\261\207K\'\361\277\021\254|\326\035\035\342\277\036\221\354I\206M\361?\332\016H\276\021\000\275\277~\267\313\275\234\024\357\277\224wH\214\371\201\211\277\300\332Vx~|\370?5\325H\003\253\336\000@\030F(G\264\034\321\277\017\257\224)\002\232\351\277v*2\300l\325\364?\r\337\244C\305\374\244\277\034\260\273\000\004\340\324?\221\343\324+a\376\357\277\2654\036j\231\244\371?\024\025\375\332\333\345\356\277\360\373!d\326j\375?jay\260\235\272\361?\274\273}\260H\304\362\277\261\3615\272\251\233\370?j\230\324\302>\353\362\277\376\231\206\274\\\364\274?B Z8\260Q\364\277\t\273\r\245\340&\345?\236\365\276\3005\265\340?Zp|\237\346\261\322\277\332\016H\276\021\000\275\2779\211\306\032\376\316\374?r:\\\206\267\022\341?\235\275P\371\002\212\330\277\260\177\316J\373\211\305?\273\307\000=\337v\340?\t]\007\211\337;\321\277\246\202X\276e\364\372\277\016D\366W\244\265\356?]\267\217WL2\322?N\005\312\253\030\202\343?\n\200\207\212\311~\325\277\337\347\244Q5\037\332\277\001hmO,\316\305\277\317\201(~\353\207\340\277\371\256l\345!\003\341?\035u5\346\3547\345\277\034\n\227\024\217S\352?@?)\357-\344\347?\177\2213i\316T\343\277PK\312\256\354\007\354?i|\035_\245\325\326\277\375\334f\317\310#\336\277\203\241\353\016\223\244\301?l\240\260\025!\023\322?\3352\333t\215=\310\277jt\305\332\204\232\367?\314\277\306\353\346\254\327?\363R\345$}a\373\277G3\260sOW\354\277\n&\254v>\013\340\277\361}9\334\305\362\276\277\023\362|\331\361\242\352\277S\342S\273\346d\361?Y\3362\304(\023\305\277\375\361T\225\021\014\342??\246\026v\037\030\362?|\n\\\331I\272\256\277\031&\310520\264?q\250\022\253\371s\343\277|\304\3350\003\325\363\277s\356\022\256\315\371\353\277\r\337\244C\305\374\244\277|q\313\272\310\216\346\277yQc\014\303\310\351\277\260T\3708%X\304\277 \200\257\316\251\025\316\277\332\016H\276\021\000\275\277\335\220\341\220\216(\354\277V\030\245\357\223\232\014@\023)\330\353\222\323\333\277\3021\0329%s\366\277yQc\014\303\310\351\277\221#\233w\264d\367\277|\317\321\326\311y\332?\345\006\002\350,\304\317?\360\305U8\005H\363?\246{\217 \025\307\342?\371\235\251\'O\222\333?\376\245\013\275\'\363\354\277,\261h\032\374^\362\277\375\236B\037\327\305\364?\202\017\2423\325\005\324?\365\374\272[^\236\346\277\272\217\222u\254K\330\277#ylsO!\270\277=\236:#=\360\322\277k\302\035by[\337\2778>\n\265\257w\274?\227#\245\210l\212\351\277\375\302Q\007\221\026\360\277Q\246\270w\tv\310?c\361\221\326e\030\016@A\236\001\023z\371\003@\232\373\356f\376\256\357?S\r,A\361\342\324\277v\016{\\\323\277\350\277\014\n{U\233.\266\277u>\r\321#\303\361\277\202\017\2423\325\005\324?F\272\271n\001>L?m\346\260\030\365\230\332?gE\276\227\351c\232\277-q&\235j\345\312?\322e\367\\H\253\266\277\262\243a\001w\307\260?\261\346A\024\343\366\321\277\350\004\274\234\223q\000@\n\200\207\212\311~\325\277\270\247\230\216\331\260\343?\336\317\030\366\021\201\374?\224wH\214\371\201\211\277\353\370{1x\333\303\277T\371P0:\365\347\277\202\017\2423\325\005\324?+\274\\\300\302\003\331?|\304\3350\003\325\363\277}\264\257\265\235V\234\277B\374JP\366\000\371?G\242yM#\263\345?\013\341\251\256\311\'\234?|\n\\\331I\272\256\277\246\202X\276e\364\372\277\216zT\'\2435\343\277p\234L\375\347\244\004@,\000P\210\300-\301\277)>\356\365\273R\350\277\2103\273,G|\361?]\277\347\333lm\361\277\233\265\362\030Ej\222?\226Z\000\233\r\273\332\277%N\030\274\006\220\364\277Ab\251\360\027\'\354?R\374h\203\036r\357\277S)\343\244\212\370\360\277\231\034a\363\367o\002@\035u5\346\3547\345\277`1\323\031\335k\344?\n&\254v>\013\340\277\235\275P\371\002\212\330\277\376\245\013\275\'\363\354\277\233\265\362\030Ej\222?\336\317\030\366\021\201\374?f\031\224\360\354\017\n@i|\035_\245\325\326\277^|\t=5\212\342\277\271(\037\254\304\336\313?hd\221\003\2027\371?&^L\223\t\363\362\277\230\226\235R\037\366\245\277\212\357M\247?\213\353?\367B\273^2$\357\277\332\016H\276\021\000\275\277"
      }
    }
  }
}
node {
  name: "tensors/component_2"
  op: "Const"
  device: "/device:CPU:0"
  attr {
    key: "_output_shapes"
    value {
      list {
        shape {
          dim {
            size: 1167
          }
        }
      }
    }
  }
  attr {
    key: "dtype"
    value {
      type: DT_DOUBLE
    }
  }
  attr {
    key: "value"
    value {
      tensor {
        dtype: DT_DOUBLE
        tensor_shape {
          dim {
            size: 1167
          }
        }
        tensor_content: "\362\325]`\"\356\001\300\224\014\021\214Js\351\277\224\014\021\214Js\351\277\3227\357\212X\205\262\277\026\031b\003\365J\370\277\026\031b\003\365J\370\277\237>Ui\364\321\344?\237>Ui\364\321\344?\0342\004\362I\372\365?\224\014\021\214Js\351\277\237>Ui\364\321\344?\237>Ui\364\321\344?\3227\357\212X\205\262\277\237>Ui\364\321\344?\237>Ui\364\321\344?\237>Ui\364\321\344?\237>Ui\364\321\344?\224\014\021\214Js\351\277\224\014\021\214Js\351\277\237>Ui\364\321\344?\3227\357\212X\205\262\277\0342\004\362I\372\365?\026\031b\003\365J\370\277\224\014\021\214Js\351\277\237>Ui\364\321\344?\3227\357\212X\205\262\277\237>Ui\364\321\344?\026\031b\003\365J\370\277\3227\357\212X\205\262\277\3227\357\212X\205\262\277\224\014\021\214Js\351\277\237>Ui\364\321\344?\237>Ui\364\321\344?\026\031b\003\365J\370\277\224\014\021\214Js\351\277\237>Ui\364\321\344?\3227\357\212X\205\262\277\237>Ui\364\321\344?\224\014\021\214Js\351\277\224\014\021\214Js\351\277\3227\357\212X\205\262\277\237>Ui\364\321\344?X\237\n?\312\266\007\300\0342\004\362I\372\365?\0342\004\362I\372\365?\3227\357\212X\205\262\277\224\014\021\214Js\351\277\224\014\021\214Js\351\277\333\253[\266t\216\006@\3227\357\212X\205\262\277\237>Ui\364\321\344?\224\014\021\214Js\351\277\224\014\021\214Js\351\277\3227\357\212X\205\262\277\3227\357\212X\205\262\277\237>Ui\364\321\344?\224\014\021\214Js\351\277\3227\357\212X\205\262\277\026\031b\003\365J\370\277\224\014\021\214Js\351\277\026\031b\003\365J\370\277\237>Ui\364\321\344?\0342\004\362I\372\365?\0342\004\362I\372\365?\237>Ui\364\321\344?\3227\357\212X\205\262\277\224\014\021\214Js\351\277\0342\004\362I\372\365?\3227\357\212X\205\262\277\3227\357\212X\205\262\277\0342\004\362I\372\365?\224\014\021\214Js\351\277\026\031b\003\365J\370\277\224\014\021\214Js\351\277\237>Ui\364\321\344?\0342\004\362I\372\365?\224\014\021\214Js\351\277\224\014\021\214Js\351\277\224\014\021\214Js\351\277\224\014\021\214Js\351\277\3227\357\212X\205\262\277\224\014\021\214Js\351\277\224\014\021\214Js\351\277\224\014\021\214Js\351\277\3227\357\212X\205\262\277\026\031b\003\365J\370\277\0342\004\362I\372\365?\237>Ui\364\321\344?\026\031b\003\365J\370\277\0342\004\362I\372\365?\0342\004\362I\372\365?\237>Ui\364\321\344?\224\014\021\214Js\351\277\237>Ui\364\321\344?\026\031b\003\365J\370\277\237>Ui\364\321\344?\237>Ui\364\321\344?\237>Ui\364\321\344?\237>Ui\364\321\344?\237>Ui\364\321\344?\224\014\021\214Js\351\277\0342\004\362I\372\365?\237>Ui\364\321\344?\237>Ui\364\321\344?\026\031b\003\365J\370\277\3227\357\212X\205\262\277\0342\004\362I\372\365?\237>Ui\364\321\344?\362\325]`\"\356\001\300\0342\004\362I\372\365?\3227\357\212X\205\262\277\224\014\021\214Js\351\277\3227\357\212X\205\262\277\026\031b\003\365J\370\277\237>Ui\364\321\344?\224\014\021\214Js\351\277\0342\004\362I\372\365?\224\014\021\214Js\351\277\3227\357\212X\205\262\277\0342\004\362I\372\365?\237>Ui\364\321\344?\3227\357\212X\205\262\277\0342\004\362I\372\365?\3227\357\212X\205\262\277\3227\357\212X\205\262\277\224\014\021\214Js\351\277\0342\004\362I\372\365?\224\014\021\214Js\351\277\3227\357\212X\205\262\277\224\014\021\214Js\351\277\237>Ui\364\321\344?\0342\004\362I\372\365?\224\014\021\214Js\351\277\3227\357\212X\205\262\277\026\031b\003\365J\370\277\3227\357\212X\205\262\277\237>Ui\364\321\344?\224\014\021\214Js\351\277\0342\004\362I\372\365?\224\014\021\214Js\351\277\0342\004\362I\372\365?\224\014\021\214Js\351\277\3227\357\212X\205\262\277\3227\357\212X\205\262\277\224\014\021\214Js\351\277\0342\004\362I\372\365?\0342\004\362I\372\365?\3227\357\212X\205\262\277\0342\004\362I\372\365?\362\325]`\"\356\001\300\224\014\021\214Js\351\277\3227\357\212X\205\262\277\3227\357\212X\205\262\277\3227\357\212X\205\262\277\026\031b\003\365J\370\277\224\014\021\214Js\351\277\3227\357\212X\205\262\277\3227\357\212X\205\262\277\026\031b\003\365J\370\277\3227\357\212X\205\262\277\0342\004\362I\372\365?\224\014\021\214Js\351\277\224\014\021\214Js\351\277\3227\357\212X\205\262\277\224\014\021\214Js\351\277\0342\004\362I\372\365?\237>Ui\364\321\344?\0342\004\362I\372\365?\224\014\021\214Js\351\277\237>Ui\364\321\344?t\342\256\327\314\305\000@\026\031b\003\365J\370\277X\237\n?\312\266\007\300\3227\357\212X\205\262\277\3227\357\212X\205\262\277\026\031b\003\365J\370\277\3227\357\212X\205\262\277\3227\357\212X\205\262\277\3227\357\212X\205\262\277\3227\357\212X\205\262\277\224\014\021\214Js\351\277\237>Ui\364\321\344?\224\014\021\214Js\351\277\237>Ui\364\321\344?\224\014\021\214Js\351\277\237>Ui\364\321\344?\0342\004\362I\372\365?\237>Ui\364\321\344?\3227\357\212X\205\262\277\237>Ui\364\321\344?\224\014\021\214Js\351\277\224\014\021\214Js\351\277\237>Ui\364\321\344?\224\014\021\214Js\351\277\237>Ui\364\321\344?\224\014\021\214Js\351\277\237>Ui\364\321\344?\026\031b\003\365J\370\277\0342\004\362I\372\365?\3227\357\212X\205\262\277\237>Ui\364\321\344?\237>Ui\364\321\344?\224\014\021\214Js\351\277\0342\004\362I\372\365?\3227\357\212X\205\262\277\3227\357\212X\205\262\277\026\031b\003\365J\370\277\026\031b\003\365J\370\277\3227\357\212X\205\262\277\237>Ui\364\321\344?\237>Ui\364\321\344?\224\014\021\214Js\351\277\026\031b\003\365J\370\277\3227\357\212X\205\262\277\237>Ui\364\321\344?\0342\004\362I\372\365?\237>Ui\364\321\344?\237>Ui\364\321\344?\224\014\021\214Js\351\277\0342\004\362I\372\365?\0342\004\362I\372\365?\237>Ui\364\321\344?\224\014\021\214Js\351\277\3227\357\212X\205\262\277\3227\357\212X\205\262\277\3227\357\212X\205\262\277\224\014\021\214Js\351\277\026\031b\003\365J\370\277\3227\357\212X\205\262\277\362\325]`\"\356\001\300\224\014\021\214Js\351\277\3227\357\212X\205\262\277\3227\357\212X\205\262\277X\237\n?\312\266\007\300\0342\004\362I\372\365?\3227\357\212X\205\262\277\237>Ui\364\321\344?\3227\357\212X\205\262\277\237>Ui\364\321\344?\0342\004\362I\372\365?\3227\357\212X\205\262\277\237>Ui\364\321\344?\237>Ui\364\321\344?\333\253[\266t\216\006@\0342\004\362I\372\365?\224\014\021\214Js\351\277\3227\357\212X\205\262\277\224\014\021\214Js\351\277\224\014\021\214Js\351\277\224\014\021\214Js\351\277\237>Ui\364\321\344?\237>Ui\364\321\344?\224\014\021\214Js\351\277\0342\004\362I\372\365?\224\014\021\214Js\351\277\224\014\021\214Js\351\277\224\014\021\214Js\351\277t\342\256\327\314\305\000@\237>Ui\364\321\344?\0342\004\362I\372\365?\224\014\021\214Js\351\277\3227\357\212X\205\262\277\224\014\021\214Js\351\277\237>Ui\364\321\344?\237>Ui\364\321\344?\3227\357\212X\205\262\277\3227\357\212X\205\262\277\224\014\021\214Js\351\277\237>Ui\364\321\344?\237>Ui\364\321\344?\237>Ui\364\321\344?\224\014\021\214Js\351\277\237>Ui\364\321\344?\224\014\021\214Js\351\277\224\014\021\214Js\351\277\224\014\021\214Js\351\277\237>Ui\364\321\344?t\342\256\327\314\305\000@\224\014\021\214Js\351\277\224\014\021\214Js\351\277\0342\004\362I\372\365?\224\014\021\214Js\351\277\3227\357\212X\205\262\277\0342\004\362I\372\365?\0342\004\362I\372\365?\3227\357\212X\205\262\277\237>Ui\364\321\344?\026\031b\003\365J\370\277\224\014\021\214Js\351\277\237>Ui\364\321\344?\237>Ui\364\321\344?\3227\357\212X\205\262\277\224\014\021\214Js\351\277\237>Ui\364\321\344?\237>Ui\364\321\344?t\342\256\327\314\305\000@\224\014\021\214Js\351\277\224\014\021\214Js\351\277\3227\357\212X\205\262\277\026\031b\003\365J\370\277\3227\357\212X\205\262\277\237>Ui\364\321\344?\3227\357\212X\205\262\277\224\014\021\214Js\351\277\026\031b\003\365J\370\277\237>Ui\364\321\344?\0342\004\362I\372\365?\3227\357\212X\205\262\277\3227\357\212X\205\262\277\224\014\021\214Js\351\277\0342\004\362I\372\365?\3227\357\212X\205\262\277\224\014\021\214Js\351\277\224\014\021\214Js\351\277\026\031b\003\365J\370\277\237>Ui\364\321\344?\0342\004\362I\372\365?\237>Ui\364\321\344?\0342\004\362I\372\365?\362\325]`\"\356\001\300\224\014\021\214Js\351\277\224\014\021\214Js\351\277\224\014\021\214Js\351\277\224\014\021\214Js\351\277\3227\357\212X\205\262\277\026\031b\003\365J\370\277\3227\357\212X\205\262\277\237>Ui\364\321\344?\0342\004\362I\372\365?\026\031b\003\365J\370\277\224\014\021\214Js\351\277\3227\357\212X\205\262\277\237>Ui\364\321\344?\237>Ui\364\321\344?\237>Ui\364\321\344?\224\014\021\214Js\351\277\224\014\021\214Js\351\277\026\031b\003\365J\370\277\3227\357\212X\205\262\277\0342\004\362I\372\365?t\342\256\327\314\305\000@\3227\357\212X\205\262\277\3227\357\212X\205\262\277\3227\357\212X\205\262\277\3227\357\212X\205\262\277\333\253[\266t\216\006@t\342\256\327\314\305\000@\224\014\021\214Js\351\277\237>Ui\364\321\344?\026\031b\003\365J\370\277\333\253[\266t\216\006@t\342\256\327\314\305\000@\0342\004\362I\372\365?\224\014\021\214Js\351\277\237>Ui\364\321\344?\3227\357\212X\205\262\277\026\031b\003\365J\370\277\026\031b\003\365J\370\277\333\253[\266t\216\006@\224\014\021\214Js\351\277\224\014\021\214Js\351\277\3227\357\212X\205\262\277t\342\256\327\314\305\000@\224\014\021\214Js\351\277\362\325]`\"\356\001\300\224\014\021\214Js\351\277\224\014\021\214Js\351\277\3227\357\212X\205\262\277\362\325]`\"\356\001\300\224\014\021\214Js\351\277\224\014\021\214Js\351\277\3227\357\212X\205\262\277\224\014\021\214Js\351\277\0342\004\362I\372\365?\237>Ui\364\321\344?\224\014\021\214Js\351\277\026\031b\003\365J\370\277\3227\357\212X\205\262\277\3227\357\212X\205\262\277\3227\357\212X\205\262\277\3227\357\212X\205\262\277\224\014\021\214Js\351\277\3227\357\212X\205\262\277\224\014\021\214Js\351\277\224\014\021\214Js\351\277\0342\004\362I\372\365?\026\031b\003\365J\370\277\3227\357\212X\205\262\277\0342\004\362I\372\365?\3227\357\212X\205\262\277\3227\357\212X\205\262\277\3227\357\212X\205\262\277\3227\357\212X\205\262\277t\342\256\327\314\305\000@\224\014\021\214Js\351\277t\342\256\327\314\305\000@\224\014\021\214Js\351\277\237>Ui\364\321\344?\3227\357\212X\205\262\277\224\014\021\214Js\351\277\224\014\021\214Js\351\277\237>Ui\364\321\344?\224\014\021\214Js\351\277\3227\357\212X\205\262\277\224\014\021\214Js\351\277\026\031b\003\365J\370\277\3227\357\212X\205\262\277\026\031b\003\365J\370\277\3227\357\212X\205\262\277\224\014\021\214Js\351\277\224\014\021\214Js\351\277\026\031b\003\365J\370\277\0342\004\362I\372\365?\0342\004\362I\372\365?\224\014\021\214Js\351\277t\342\256\327\314\305\000@\3227\357\212X\205\262\277\237>Ui\364\321\344?\237>Ui\364\321\344?\224\014\021\214Js\351\277\237>Ui\364\321\344?\0342\004\362I\372\365?\237>Ui\364\321\344?\3227\357\212X\205\262\277\026\031b\003\365J\370\277\224\014\021\214Js\351\277\3227\357\212X\205\262\277\237>Ui\364\321\344?\3227\357\212X\205\262\277\237>Ui\364\321\344?\224\014\021\214Js\351\277\224\014\021\214Js\351\277\224\014\021\214Js\351\277\224\014\021\214Js\351\277\362\325]`\"\356\001\300\026\031b\003\365J\370\277\3227\357\212X\205\262\277\237>Ui\364\321\344?\237>Ui\364\321\344?\224\014\021\214Js\351\277t\342\256\327\314\305\000@\333\253[\266t\216\006@\237>Ui\364\321\344?\224\014\021\214Js\351\277\224\014\021\214Js\351\277\026\031b\003\365J\370\277\3227\357\212X\205\262\277\237>Ui\364\321\344?\224\014\021\214Js\351\277\237>Ui\364\321\344?\224\014\021\214Js\351\277\237>Ui\364\321\344?\237>Ui\364\321\344?\224\014\021\214Js\351\277\224\014\021\214Js\351\277\237>Ui\364\321\344?t\342\256\327\314\305\000@t\342\256\327\314\305\000@t\342\256\327\314\305\000@\026\031b\003\365J\370\277\333\253[\266t\216\006@\224\014\021\214Js\351\277\237>Ui\364\321\344?\237>Ui\364\321\344?\224\014\021\214Js\351\277\0342\004\362I\372\365?\237>Ui\364\321\344?\3227\357\212X\205\262\277\224\014\021\214Js\351\277\3227\357\212X\205\262\277\3227\357\212X\205\262\277\224\014\021\214Js\351\277\224\014\021\214Js\351\277\3227\357\212X\205\262\277\237>Ui\364\321\344?\224\014\021\214Js\351\277\3227\357\212X\205\262\277\224\014\021\214Js\351\277\224\014\021\214Js\351\277\237>Ui\364\321\344?\237>Ui\364\321\344?\3227\357\212X\205\262\277\3227\357\212X\205\262\277\224\014\021\214Js\351\277\0342\004\362I\372\365?\224\014\021\214Js\351\277\224\014\021\214Js\351\277\026\031b\003\365J\370\277\237>Ui\364\321\344?\3227\357\212X\205\262\277\237>Ui\364\321\344?\224\014\021\214Js\351\277\224\014\021\214Js\351\277t\342\256\327\314\305\000@\237>Ui\364\321\344?t\342\256\327\314\305\000@\237>Ui\364\321\344?\224\014\021\214Js\351\277\224\014\021\214Js\351\277\3227\357\212X\205\262\277t\342\256\327\314\305\000@\026\031b\003\365J\370\277\224\014\021\214Js\351\277\026\031b\003\365J\370\277\3227\357\212X\205\262\277\3227\357\212X\205\262\277\3227\357\212X\205\262\277\224\014\021\214Js\351\277\3227\357\212X\205\262\277\0342\004\362I\372\365?\237>Ui\364\321\344?\362\325]`\"\356\001\300t\342\256\327\314\305\000@\0342\004\362I\372\365?\3227\357\212X\205\262\277\3227\357\212X\205\262\277\0342\004\362I\372\365?\224\014\021\214Js\351\277\0342\004\362I\372\365?\237>Ui\364\321\344?\224\014\021\214Js\351\277\237>Ui\364\321\344?\237>Ui\364\321\344?\0342\004\362I\372\365?\3227\357\212X\205\262\277\3227\357\212X\205\262\277\0342\004\362I\372\365?\237>Ui\364\321\344?\237>Ui\364\321\344?\0342\004\362I\372\365?\0342\004\362I\372\365?\224\014\021\214Js\351\277\0342\004\362I\372\365?\3227\357\212X\205\262\277\237>Ui\364\321\344?\237>Ui\364\321\344?\237>Ui\364\321\344?\224\014\021\214Js\351\277\3227\357\212X\205\262\277\3227\357\212X\205\262\277\224\014\021\214Js\351\277\0342\004\362I\372\365?\224\014\021\214Js\351\277\0342\004\362I\372\365?\224\014\021\214Js\351\277\237>Ui\364\321\344?\224\014\021\214Js\351\277\3227\357\212X\205\262\277\224\014\021\214Js\351\277\237>Ui\364\321\344?\333\253[\266t\216\006@\3227\357\212X\205\262\277\0342\004\362I\372\365?\224\014\021\214Js\351\277\3227\357\212X\205\262\277\224\014\021\214Js\351\277\237>Ui\364\321\344?\237>Ui\364\321\344?\237>Ui\364\321\344?\0342\004\362I\372\365?\0342\004\362I\372\365?\237>Ui\364\321\344?t\342\256\327\314\305\000@\237>Ui\364\321\344?\0342\004\362I\372\365?\224\014\021\214Js\351\277\0342\004\362I\372\365?\224\014\021\214Js\351\277\3227\357\212X\205\262\277\0342\004\362I\372\365?\3227\357\212X\205\262\277\026\031b\003\365J\370\277\237>Ui\364\321\344?\224\014\021\214Js\351\277\224\014\021\214Js\351\277\224\014\021\214Js\351\277\362\325]`\"\356\001\300\3227\357\212X\205\262\277\3227\357\212X\205\262\277\237>Ui\364\321\344?\224\014\021\214Js\351\277\224\014\021\214Js\351\277\3227\357\212X\205\262\277\224\014\021\214Js\351\277\237>Ui\364\321\344?\224\014\021\214Js\351\277\237>Ui\364\321\344?\3227\357\212X\205\262\277\3227\357\212X\205\262\277\3227\357\212X\205\262\277\026\031b\003\365J\370\277\3227\357\212X\205\262\277\224\014\021\214Js\351\277\3227\357\212X\205\262\277\3227\357\212X\205\262\277\3227\357\212X\205\262\277\3227\357\212X\205\262\277\224\014\021\214Js\351\277t\342\256\327\314\305\000@\224\014\021\214Js\351\277\237>Ui\364\321\344?\362\325]`\"\356\001\300\224\014\021\214Js\351\277\237>Ui\364\321\344?\3227\357\212X\205\262\277\224\014\021\214Js\351\277\0342\004\362I\372\365?\237>Ui\364\321\344?\3227\357\212X\205\262\277\0342\004\362I\372\365?\0342\004\362I\372\365?t\342\256\327\314\305\000@\237>Ui\364\321\344?\224\014\021\214Js\351\277\224\014\021\214Js\351\277\026\031b\003\365J\370\277\333\253[\266t\216\006@\026\031b\003\365J\370\277\237>Ui\364\321\344?\3227\357\212X\205\262\277\224\014\021\214Js\351\277\237>Ui\364\321\344?\237>Ui\364\321\344?\0342\004\362I\372\365?\3227\357\212X\205\262\277\362\325]`\"\356\001\300\224\014\021\214Js\351\277\237>Ui\364\321\344?\224\014\021\214Js\351\277\026\031b\003\365J\370\277\0342\004\362I\372\365?\0342\004\362I\372\365?\224\014\021\214Js\351\277\237>Ui\364\321\344?\0342\004\362I\372\365?\3227\357\212X\205\262\277\3227\357\212X\205\262\277\224\014\021\214Js\351\277\3227\357\212X\205\262\277\0342\004\362I\372\365?t\342\256\327\314\305\000@\237>Ui\364\321\344?\0342\004\362I\372\365?\026\031b\003\365J\370\277t\342\256\327\314\305\000@\3227\357\212X\205\262\277\237>Ui\364\321\344?\224\014\021\214Js\351\277\3227\357\212X\205\262\277\224\014\021\214Js\351\277\237>Ui\364\321\344?\237>Ui\364\321\344?\026\031b\003\365J\370\277\3227\357\212X\205\262\277t\342\256\327\314\305\000@\224\014\021\214Js\351\277\333\253[\266t\216\006@\224\014\021\214Js\351\277\3227\357\212X\205\262\277\237>Ui\364\321\344?\0342\004\362I\372\365?\276h\267\035r\177\r\300\237>Ui\364\321\344?\237>Ui\364\321\344?\0342\004\362I\372\365?\333\253[\266t\216\006@\224\014\021\214Js\351\277\237>Ui\364\321\344?\3227\357\212X\205\262\277\224\014\021\214Js\351\277\3227\357\212X\205\262\277\3227\357\212X\205\262\277\224\014\021\214Js\351\277\237>Ui\364\321\344?\0342\004\362I\372\365?\237>Ui\364\321\344?\3227\357\212X\205\262\277\237>Ui\364\321\344?\224\014\021\214Js\351\277\3227\357\212X\205\262\277\3227\357\212X\205\262\277\224\014\021\214Js\351\277\362\325]`\"\356\001\300\224\014\021\214Js\351\277\224\014\021\214Js\351\277\224\014\021\214Js\351\277\237>Ui\364\321\344?\3227\357\212X\205\262\277\224\014\021\214Js\351\277\3227\357\212X\205\262\277\237>Ui\364\321\344?\237>Ui\364\321\344?\237>Ui\364\321\344?\224\014\021\214Js\351\277\3227\357\212X\205\262\277\224\014\021\214Js\351\277\0342\004\362I\372\365?\0342\004\362I\372\365?\026\031b\003\365J\370\277t\342\256\327\314\305\000@\224\014\021\214Js\351\277\237>Ui\364\321\344?\3227\357\212X\205\262\277\3227\357\212X\205\262\277\026\031b\003\365J\370\277\3227\357\212X\205\262\277\026\031b\003\365J\370\277\3227\357\212X\205\262\277\0342\004\362I\372\365?t\342\256\327\314\305\000@\224\014\021\214Js\351\277\026\031b\003\365J\370\277\3227\357\212X\205\262\277\237>Ui\364\321\344?\224\014\021\214Js\351\277\026\031b\003\365J\370\277\237>Ui\364\321\344?t\342\256\327\314\305\000@\026\031b\003\365J\370\277\237>Ui\364\321\344?\3227\357\212X\205\262\277\0342\004\362I\372\365?\224\014\021\214Js\351\277\0342\004\362I\372\365?\224\014\021\214Js\351\277\224\014\021\214Js\351\277\3227\357\212X\205\262\277\3227\357\212X\205\262\277\237>Ui\364\321\344?\333\253[\266t\216\006@\026\031b\003\365J\370\277\3227\357\212X\205\262\277\237>Ui\364\321\344?\224\014\021\214Js\351\277\3227\357\212X\205\262\277\3227\357\212X\205\262\277\3227\357\212X\205\262\277\237>Ui\364\321\344?\224\014\021\214Js\351\277\237>Ui\364\321\344?\224\014\021\214Js\351\277\3227\357\212X\205\262\277\224\014\021\214Js\351\277\237>Ui\364\321\344?\224\014\021\214Js\351\277\0342\004\362I\372\365?\026\031b\003\365J\370\277\224\014\021\214Js\351\277\026\031b\003\365J\370\277\237>Ui\364\321\344?\026\031b\003\365J\370\277\3227\357\212X\205\262\277t\342\256\327\314\305\000@\237>Ui\364\321\344?\224\014\021\214Js\351\277\3227\357\212X\205\262\277\3227\357\212X\205\262\277\224\014\021\214Js\351\277\3227\357\212X\205\262\277\224\014\021\214Js\351\277\237>Ui\364\321\344?\026\031b\003\365J\370\277\026\031b\003\365J\370\277\237>Ui\364\321\344?\224\014\021\214Js\351\277\0342\004\362I\372\365?\3227\357\212X\205\262\277t\342\256\327\314\305\000@\0342\004\362I\372\365?\026\031b\003\365J\370\277\3227\357\212X\205\262\277\237>Ui\364\321\344?\224\014\021\214Js\351\277\237>Ui\364\321\344?\3227\357\212X\205\262\277\362\325]`\"\356\001\300\224\014\021\214Js\351\277\224\014\021\214Js\351\277\362\325]`\"\356\001\300\237>Ui\364\321\344?\237>Ui\364\321\344?\3227\357\212X\205\262\277\333\253[\266t\216\006@\237>Ui\364\321\344?\3227\357\212X\205\262\277\026\031b\003\365J\370\277\237>Ui\364\321\344?\3227\357\212X\205\262\277\0342\004\362I\372\365?\026\031b\003\365J\370\277\026\031b\003\365J\370\277\224\014\021\214Js\351\277\237>Ui\364\321\344?\224\014\021\214Js\351\277\237>Ui\364\321\344?\237>Ui\364\321\344?\237>Ui\364\321\344?\0342\004\362I\372\365?\224\014\021\214Js\351\277\026\031b\003\365J\370\277\224\014\021\214Js\351\277\224\014\021\214Js\351\277\3227\357\212X\205\262\277\224\014\021\214Js\351\277\224\014\021\214Js\351\277\224\014\021\214Js\351\277\237>Ui\364\321\344?\237>Ui\364\321\344?\3227\357\212X\205\262\277\237>Ui\364\321\344?\224\014\021\214Js\351\277\224\014\021\214Js\351\277\224\014\021\214Js\351\277\224\014\021\214Js\351\277\0342\004\362I\372\365?\0342\004\362I\372\365?\224\014\021\214Js\351\277\237>Ui\364\321\344?\3227\357\212X\205\262\277\3227\357\212X\205\262\277\237>Ui\364\321\344?\237>Ui\364\321\344?\224\014\021\214Js\351\277\237>Ui\364\321\344?\237>Ui\364\321\344?\237>Ui\364\321\344?\362\325]`\"\356\001\300\3227\357\212X\205\262\277\333\253[\266t\216\006@\3227\357\212X\205\262\277\3227\357\212X\205\262\277\237>Ui\364\321\344?\237>Ui\364\321\344?\224\014\021\214Js\351\277\3227\357\212X\205\262\277\3227\357\212X\205\262\277\237>Ui\364\321\344?\224\014\021\214Js\351\277\237>Ui\364\321\344?\224\014\021\214Js\351\277\3227\357\212X\205\262\277\3227\357\212X\205\262\277\3227\357\212X\205\262\277\0342\004\362I\372\365?\224\014\021\214Js\351\277\237>Ui\364\321\344?\0342\004\362I\372\365?\3227\357\212X\205\262\277\3227\357\212X\205\262\277\237>Ui\364\321\344?\3227\357\212X\205\262\277\3227\357\212X\205\262\277\237>Ui\364\321\344?\3227\357\212X\205\262\277\224\014\021\214Js\351\277\3227\357\212X\205\262\277\224\014\021\214Js\351\277\237>Ui\364\321\344?\3227\357\212X\205\262\277\224\014\021\214Js\351\277\3227\357\212X\205\262\277\224\014\021\214Js\351\277\237>Ui\364\321\344?\237>Ui\364\321\344?\224\014\021\214Js\351\277\224\014\021\214Js\351\277\224\014\021\214Js\351\277\224\014\021\214Js\351\277\237>Ui\364\321\344?\3227\357\212X\205\262\277\3227\357\212X\205\262\277\237>Ui\364\321\344?\3227\357\212X\205\262\277\3227\357\212X\205\262\277\026\031b\003\365J\370\277\026\031b\003\365J\370\277\026\031b\003\365J\370\277\237>Ui\364\321\344?\0342\004\362I\372\365?\224\014\021\214Js\351\277\224\014\021\214Js\351\277\237>Ui\364\321\344?\0342\004\362I\372\365?\237>Ui\364\321\344?t\342\256\327\314\305\000@\3227\357\212X\205\262\277\224\014\021\214Js\351\277\237>Ui\364\321\344?\0342\004\362I\372\365?\237>Ui\364\321\344?\224\014\021\214Js\351\277\224\014\021\214Js\351\277\224\014\021\214Js\351\277\237>Ui\364\321\344?\3227\357\212X\205\262\277\026\031b\003\365J\370\277\3227\357\212X\205\262\277\237>Ui\364\321\344?\3227\357\212X\205\262\277\3227\357\212X\205\262\277\224\014\021\214Js\351\277\3227\357\212X\205\262\277\237>Ui\364\321\344?\0342\004\362I\372\365?\026\031b\003\365J\370\277\0342\004\362I\372\365?\0342\004\362I\372\365?\0342\004\362I\372\365?\237>Ui\364\321\344?\3227\357\212X\205\262\277\3227\357\212X\205\262\277\3227\357\212X\205\262\277\237>Ui\364\321\344?\224\014\021\214Js\351\277\3227\357\212X\205\262\277\224\014\021\214Js\351\277\026\031b\003\365J\370\277\224\014\021\214Js\351\277\026\031b\003\365J\370\277\237>Ui\364\321\344?\3227\357\212X\205\262\277\3227\357\212X\205\262\277\237>Ui\364\321\344?\3227\357\212X\205\262\277\237>Ui\364\321\344?\224\014\021\214Js\351\277\237>Ui\364\321\344?\3227\357\212X\205\262\277\3227\357\212X\205\262\277\333\253[\266t\216\006@\224\014\021\214Js\351\277\237>Ui\364\321\344?\224\014\021\214Js\351\277\224\014\021\214Js\351\277\0342\004\362I\372\365?\224\014\021\214Js\351\277\026\031b\003\365J\370\277\0342\004\362I\372\365?\3227\357\212X\205\262\277\0342\004\362I\372\365?\224\014\021\214Js\351\277\224\014\021\214Js\351\277\3227\357\212X\205\262\277\3227\357\212X\205\262\277\026\031b\003\365J\370\277\224\014\021\214Js\351\277\224\014\021\214Js\351\277\3227\357\212X\205\262\277\224\014\021\214Js\351\277\3227\357\212X\205\262\277\237>Ui\364\321\344?\3227\357\212X\205\262\277\224\014\021\214Js\351\277\224\014\021\214Js\351\277\224\014\021\214Js\351\277\224\014\021\214Js\351\277\224\014\021\214Js\351\277\026\031b\003\365J\370\277\3227\357\212X\205\262\277\3227\357\212X\205\262\277\237>Ui\364\321\344?\224\014\021\214Js\351\277\3227\357\212X\205\262\277\3227\357\212X\205\262\277\224\014\021\214Js\351\277\3227\357\212X\205\262\277\224\014\021\214Js\351\277\026\031b\003\365J\370\277\224\014\021\214Js\351\277\224\014\021\214Js\351\277\0342\004\362I\372\365?\224\014\021\214Js\351\277\3227\357\212X\205\262\277\0342\004\362I\372\365?\0342\004\362I\372\365?\224\014\021\214Js\351\277\0342\004\362I\372\365?\362\325]`\"\356\001\300t\342\256\327\314\305\000@\3227\357\212X\205\262\277\224\014\021\214Js\351\277\224\014\021\214Js\351\277\237>Ui\364\321\344?\224\014\021\214Js\351\277\237>Ui\364\321\344?\224\014\021\214Js\351\277\3227\357\212X\205\262\277\3227\357\212X\205\262\277\3227\357\212X\205\262\277\237>Ui\364\321\344?\224\014\021\214Js\351\277\3227\357\212X\205\262\277\0342\004\362I\372\365?\224\014\021\214Js\351\277\237>Ui\364\321\344?\3227\357\212X\205\262\277\224\014\021\214Js\351\277\224\014\021\214Js\351\277\026\031b\003\365J\370\277\3227\357\212X\205\262\277\3227\357\212X\205\262\277\026\031b\003\365J\370\277\224\014\021\214Js\351\277\224\014\021\214Js\351\277\276h\267\035r\177\r\300\237>Ui\364\321\344?\362\325]`\"\356\001\300\237>Ui\364\321\344?\224\014\021\214Js\351\277\3227\357\212X\205\262\277\333\253[\266t\216\006@\3227\357\212X\205\262\277\026\031b\003\365J\370\277\3227\357\212X\205\262\277\3227\357\212X\205\262\277\3227\357\212X\205\262\277\3227\357\212X\205\262\277\3227\357\212X\205\262\277\224\014\021\214Js\351\277\237>Ui\364\321\344?\224\014\021\214Js\351\277\026\031b\003\365J\370\277\3227\357\212X\205\262\277\224\014\021\214Js\351\277\0342\004\362I\372\365?\0342\004\362I\372\365?\224\014\021\214Js\351\277t\342\256\327\314\305\000@\224\014\021\214Js\351\277\3227\357\212X\205\262\277\3227\357\212X\205\262\277\237>Ui\364\321\344?\237>Ui\364\321\344?\3227\357\212X\205\262\277\0342\004\362I\372\365?\237>Ui\364\321\344?\3227\357\212X\205\262\277\237>Ui\364\321\344?\237>Ui\364\321\344?\224\014\021\214Js\351\277\026\031b\003\365J\370\277\026\031b\003\365J\370\277\333\253[\266t\216\006@\0342\004\362I\372\365?\237>Ui\364\321\344?\237>Ui\364\321\344?\224\014\021\214Js\351\277\3227\357\212X\205\262\277\3227\357\212X\205\262\277\0342\004\362I\372\365?\3227\357\212X\205\262\277\237>Ui\364\321\344?\0342\004\362I\372\365?\3227\357\212X\205\262\277\0342\004\362I\372\365?\026\031b\003\365J\370\277\224\014\021\214Js\351\277\0342\004\362I\372\365?\224\014\021\214Js\351\277\3227\357\212X\205\262\277\3227\357\212X\205\262\277\237>Ui\364\321\344?\224\014\021\214Js\351\277\224\014\021\214Js\351\277\3227\357\212X\205\262\277\237>Ui\364\321\344?\224\014\021\214Js\351\277\3227\357\212X\205\262\277\3227\357\212X\205\262\277\224\014\021\214Js\351\277\237>Ui\364\321\344?\224\014\021\214Js\351\277\237>Ui\364\321\344?\026\031b\003\365J\370\277\224\014\021\214Js\351\277\224\014\021\214Js\351\277\3227\357\212X\205\262\277\237>Ui\364\321\344?\224\014\021\214Js\351\277\224\014\021\214Js\351\277\3227\357\212X\205\262\277\3227\357\212X\205\262\277\224\014\021\214Js\351\277\3227\357\212X\205\262\277\224\014\021\214Js\351\277\224\014\021\214Js\351\277\3227\357\212X\205\262\277\026\031b\003\365J\370\277\237>Ui\364\321\344?\0342\004\362I\372\365?\237>Ui\364\321\344?\3227\357\212X\205\262\277\0342\004\362I\372\365?\026\031b\003\365J\370\277\224\014\021\214Js\351\277\0342\004\362I\372\365?\224\014\021\214Js\351\277\224\014\021\214Js\351\277\224\014\021\214Js\351\277\224\014\021\214Js\351\277\224\014\021\214Js\351\277\237>Ui\364\321\344?\0342\004\362I\372\365?\224\014\021\214Js\351\277\3227\357\212X\205\262\277\237>Ui\364\321\344?\237>Ui\364\321\344?\0342\004\362I\372\365?\237>Ui\364\321\344?\224\014\021\214Js\351\277\224\014\021\214Js\351\277\3227\357\212X\205\262\277\3227\357\212X\205\262\277\3227\357\212X\205\262\277\3227\357\212X\205\262\277\0342\004\362I\372\365?\0342\004\362I\372\365?\237>Ui\364\321\344?\3227\357\212X\205\262\277\237>Ui\364\321\344?\237>Ui\364\321\344?t\342\256\327\314\305\000@\224\014\021\214Js\351\277\237>Ui\364\321\344?\0342\004\362I\372\365?\237>Ui\364\321\344?\237>Ui\364\321\344?\224\014\021\214Js\351\277\3227\357\212X\205\262\277\3227\357\212X\205\262\277\026\031b\003\365J\370\277\237>Ui\364\321\344?\224\014\021\214Js\351\277\237>Ui\364\321\344?\237>Ui\364\321\344?\3227\357\212X\205\262\277\026\031b\003\365J\370\277\3227\357\212X\205\262\277\3227\357\212X\205\262\277\3227\357\212X\205\262\277\3227\357\212X\205\262\277\237>Ui\364\321\344?\224\014\021\214Js\351\277\237>Ui\364\321\344?\026\031b\003\365J\370\277\224\014\021\214Js\351\277\237>Ui\364\321\344?\237>Ui\364\321\344?\3227\357\212X\205\262\277\0342\004\362I\372\365?\224\014\021\214Js\351\277\3227\357\212X\205\262\277\3227\357\212X\205\262\277\0342\004\362I\372\365?\224\014\021\214Js\351\277\3227\357\212X\205\262\277\0342\004\362I\372\365?\0342\004\362I\372\365?\3227\357\212X\205\262\277\224\014\021\214Js\351\277\237>Ui\364\321\344?\237>Ui\364\321\344?\224\014\021\214Js\351\277\3227\357\212X\205\262\277\0342\004\362I\372\365?\3227\357\212X\205\262\277\224\014\021\214Js\351\277"
      }
    }
  }
}
node {
  name: "tensors/component_3"
  op: "Const"
  device: "/device:CPU:0"
  attr {
    key: "_output_shapes"
    value {
      list {
        shape {
          dim {
            size: 1167
          }
        }
      }
    }
  }
  attr {
    key: "dtype"
    value {
      type: DT_UINT8
    }
  }
  attr {
    key: "value"
    value {
      tensor {
        dtype: DT_UINT8
        tensor_shape {
          dim {
            size: 1167
          }
        }
        tensor_content: "\000\000\000\000\000\000\000\000\000\000\000\000\000\000\000\000\000\000\000\000\000\000\000\000\000\000\000\000\000\000\000\000\000\000\000\000\000\000\000\000\000\000\000\000\000\001\000\000\000\000\000\000\000\000\000\000\000\000\000\000\000\000\000\000\000\000\000\000\000\000\000\000\000\000\000\000\000\000\000\000\000\001\000\000\000\000\000\001\000\000\000\000\000\000\000\000\000\000\000\000\000\000\000\000\000\000\000\000\000\000\000\000\000\000\000\001\000\000\000\000\000\000\000\000\000\000\000\000\000\000\000\000\000\001\000\000\000\000\001\000\000\000\000\000\000\001\000\000\000\000\000\000\000\000\000\000\000\000\000\000\000\000\000\000\001\000\000\000\001\000\000\000\000\000\000\000\000\000\000\000\000\000\000\000\000\000\000\000\001\000\000\000\000\000\000\000\000\000\001\000\000\000\000\000\000\000\000\001\000\000\000\000\000\000\000\000\000\000\001\000\000\000\000\000\000\000\000\000\000\000\000\000\001\001\001\000\000\000\000\000\000\000\000\000\000\000\000\000\000\000\000\000\000\000\000\000\000\000\000\000\000\000\000\000\000\000\000\000\000\000\000\000\000\000\000\000\000\000\000\000\000\001\000\000\000\000\000\000\000\000\000\000\000\000\000\000\000\001\000\000\000\000\000\000\000\000\000\000\001\000\000\000\000\000\000\000\000\000\000\000\000\000\000\000\000\000\000\000\000\000\000\000\000\000\001\000\001\000\000\000\000\000\000\000\000\000\000\000\000\000\000\000\000\000\000\000\000\001\001\000\000\000\000\000\001\000\000\000\000\000\000\000\000\000\000\000\001\000\001\000\000\000\000\000\000\000\000\000\000\000\000\000\000\000\000\000\001\000\000\000\000\000\001\000\000\000\001\001\000\000\000\000\000\000\000\000\000\000\000\000\000\000\000\000\000\000\000\000\001\000\000\001\000\000\000\000\000\000\000\000\000\000\000\000\000\001\000\000\000\000\000\000\000\000\000\000\000\000\000\000\000\000\000\000\000\000\000\000\001\000\000\000\000\000\000\000\000\000\000\000\000\000\001\000\000\000\000\000\000\000\000\000\000\000\000\000\000\000\000\000\000\000\000\000\000\000\000\000\000\000\000\001\001\000\000\000\000\000\000\000\000\000\000\000\000\000\000\000\000\000\000\000\000\000\000\000\000\000\000\000\000\000\001\000\000\000\000\000\000\000\000\000\000\000\000\000\000\000\000\000\001\000\000\001\000\000\000\000\000\000\000\000\000\000\000\000\000\001\000\000\001\000\000\000\000\000\000\000\000\000\000\000\000\001\000\000\000\000\000\000\000\000\000\000\000\000\000\000\000\000\000\000\000\000\001\000\000\000\000\000\000\000\000\000\000\000\000\000\000\000\000\000\000\000\000\000\000\000\000\000\000\000\000\000\000\000\000\000\000\000\000\000\000\000\000\000\000\000\000\000\000\000\000\000\000\000\000\000\000\000\001\000\000\000\000\000\001\000\000\000\000\000\000\000\000\000\000\001\000\000\000\000\000\001\000\000\000\000\000\000\000\000\000\000\001\000\000\000\000\000\000\000\000\000\000\000\000\000\000\000\000\000\000\000\000\000\000\000\001\000\000\000\000\000\000\000\000\000\000\000\000\000\000\000\000\000\000\001\000\000\001\000\000\000\000\000\000\000\000\000\000\000\000\001\000\000\000\000\000\001\000\000\000\000\000\000\000\000\000\000\000\000\000\000\000\000\000\000\000\000\000\001\000\000\000\000\000\000\000\000\000\000\000\000\000\001\000\000\000\000\000\000\000\000\000\000\000\000\000\000\000\000\000\000\000\000\000\000\000\000\000\001\000\000\001\000\000\000\000\000\000\000\000\000\000\000\000\000\000\000\000\000\000\000\000\000\000\000\000\001\000\000\000\000\000\000\000\000\000\000\000\000\001\000\000\000\000\000\000\000\000\000\000\000\000\000\000\000\000\000\000\000\000\000\000\001\000\000\000\000\000\001\000\000\000\000\000\000\000\000\000\000\000\001\000\000\000\000\000\000\000\000\000\000\000\000\000\000\000\000\000\000\000\001\000\000\000\000\000\000\000\000\000\000\000\000\000\000\000\000\000\000\000\000\000\000\000\000\000\000\000\000\000\000\000\000\000\000\000\000\000\000\000\000\000\000\000\000\000\000\000\000\000\000\000\000\000\000\000\000\000\000\000\000\000\000\001\000\001\000\000\000\001\000\000\000\000\000\001\000\000\000\000\000\000\000\000\000\000\000\000\000\000\000\000\000\000\000\000\000\000\000\001\000\000\000\000\000\001\000\000\000\000\000\000\000\000\000\000\000\000\000\000\001\000\000\000\000\000\000\000\000\000\000\000\000\000\000\000\000\000\000\000\000\000\000\000\000\000\001\000\000\000\001\000\000\000\000\000\000\001\000\000\000\000\000\000\000\000\000\000\000\000\001\000\000\000\000\000\000\000\000\000\000\000\000\000\000\000\000\000\000\001\000\000\000\000\000\000\000\000\000\000\000\000\000\000\000\000\000\000\000\000\000\000\000\000\000\000\000\000\000\000\000\000\000\000\000\000\000\000\000\000\000\000\000\000"
      }
    }
  }
}
node {
  name: "tensors/component_4"
  op: "Const"
  device: "/device:CPU:0"
  attr {
    key: "_output_shapes"
    value {
      list {
        shape {
          dim {
            size: 1167
          }
        }
      }
    }
  }
  attr {
    key: "dtype"
    value {
      type: DT_UINT8
    }
  }
  attr {
    key: "value"
    value {
      tensor {
        dtype: DT_UINT8
        tensor_shape {
          dim {
            size: 1167
          }
        }
