node {
  name: "global_step/Initializer/zeros"
  op: "Const"
  attr {
    key: "_class"
    value {
      list {
        s: "loc:@global_step"
      }
    }
  }
  attr {
    key: "_output_shapes"
    value {
      list {
        shape {
        }
      }
    }
  }
  attr {
    key: "dtype"
    value {
      type: DT_INT64
    }
  }
  attr {
    key: "value"
    value {
      tensor {
        dtype: DT_INT64
        tensor_shape {
        }
        int64_val: 0
      }
    }
  }
}
node {
  name: "global_step"
  op: "VariableV2"
  attr {
    key: "_class"
    value {
      list {
        s: "loc:@global_step"
      }
    }
  }
  attr {
    key: "_output_shapes"
    value {
      list {
        shape {
        }
      }
    }
  }
  attr {
    key: "container"
    value {
      s: ""
    }
  }
  attr {
    key: "dtype"
    value {
      type: DT_INT64
    }
  }
  attr {
    key: "shape"
    value {
      shape {
      }
    }
  }
  attr {
    key: "shared_name"
    value {
      s: ""
    }
  }
}
node {
  name: "global_step/Assign"
  op: "Assign"
  input: "global_step"
  input: "global_step/Initializer/zeros"
  attr {
    key: "T"
    value {
      type: DT_INT64
    }
  }
  attr {
    key: "_class"
    value {
      list {
        s: "loc:@global_step"
      }
    }
  }
  attr {
    key: "_output_shapes"
    value {
      list {
        shape {
        }
      }
    }
  }
  attr {
    key: "use_locking"
    value {
      b: true
    }
  }
  attr {
    key: "validate_shape"
    value {
      b: true
    }
  }
}
node {
  name: "global_step/read"
  op: "Identity"
  input: "global_step"
  attr {
    key: "T"
    value {
      type: DT_INT64
    }
  }
  attr {
    key: "_class"
    value {
      list {
        s: "loc:@global_step"
      }
    }
  }
  attr {
    key: "_output_shapes"
    value {
      list {
        shape {
        }
      }
    }
  }
}
node {
  name: "global_step/IsVariableInitialized"
  op: "IsVariableInitialized"
  input: "global_step"
  attr {
    key: "_class"
    value {
      list {
        s: "loc:@global_step"
      }
    }
  }
  attr {
    key: "_output_shapes"
    value {
      list {
        shape {
        }
      }
    }
  }
  attr {
    key: "dtype"
    value {
      type: DT_INT64
    }
  }
}
node {
  name: "global_step/cond/Switch"
  op: "Switch"
  input: "global_step/IsVariableInitialized"
  input: "global_step/IsVariableInitialized"
  attr {
    key: "T"
    value {
      type: DT_BOOL
    }
  }
  attr {
    key: "_output_shapes"
    value {
      list {
        shape {
        }
        shape {
        }
      }
    }
  }
}
node {
  name: "global_step/cond/switch_t"
  op: "Identity"
  input: "global_step/cond/Switch:1"
  attr {
    key: "T"
    value {
      type: DT_BOOL
    }
  }
  attr {
    key: "_output_shapes"
    value {
      list {
        shape {
        }
      }
    }
  }
}
node {
  name: "global_step/cond/switch_f"
  op: "Identity"
  input: "global_step/cond/Switch"
  attr {
    key: "T"
    value {
      type: DT_BOOL
    }
  }
  attr {
    key: "_output_shapes"
    value {
      list {
        shape {
        }
      }
    }
  }
}
node {
  name: "global_step/cond/pred_id"
  op: "Identity"
  input: "global_step/IsVariableInitialized"
  attr {
    key: "T"
    value {
      type: DT_BOOL
    }
  }
  attr {
    key: "_output_shapes"
    value {
      list {
        shape {
        }
      }
    }
  }
}
node {
  name: "global_step/cond/read"
  op: "Identity"
  input: "global_step/cond/read/Switch:1"
  attr {
    key: "T"
    value {
      type: DT_INT64
    }
  }
  attr {
    key: "_output_shapes"
    value {
      list {
        shape {
        }
      }
    }
  }
}
node {
  name: "global_step/cond/read/Switch"
  op: "RefSwitch"
  input: "global_step"
  input: "global_step/cond/pred_id"
  attr {
    key: "T"
    value {
      type: DT_INT64
    }
  }
  attr {
    key: "_class"
    value {
      list {
        s: "loc:@global_step"
      }
    }
  }
  attr {
    key: "_output_shapes"
    value {
      list {
        shape {
        }
        shape {
        }
      }
    }
  }
}
node {
  name: "global_step/cond/Switch_1"
  op: "Switch"
  input: "global_step/Initializer/zeros"
  input: "global_step/cond/pred_id"
  attr {
    key: "T"
    value {
      type: DT_INT64
    }
  }
  attr {
    key: "_class"
    value {
      list {
        s: "loc:@global_step"
      }
    }
  }
  attr {
    key: "_output_shapes"
    value {
      list {
        shape {
        }
        shape {
        }
      }
    }
  }
}
node {
  name: "global_step/cond/Merge"
  op: "Merge"
  input: "global_step/cond/Switch_1"
  input: "global_step/cond/read"
  attr {
    key: "N"
    value {
      i: 2
    }
  }
  attr {
    key: "T"
    value {
      type: DT_INT64
    }
  }
  attr {
    key: "_output_shapes"
    value {
      list {
        shape {
        }
        shape {
        }
      }
    }
  }
}
node {
  name: "global_step/add/y"
  op: "Const"
  attr {
    key: "_output_shapes"
    value {
      list {
        shape {
        }
      }
    }
  }
  attr {
    key: "dtype"
    value {
      type: DT_INT64
    }
  }
  attr {
    key: "value"
    value {
      tensor {
        dtype: DT_INT64
        tensor_shape {
        }
        int64_val: 0
      }
    }
  }
}
node {
  name: "global_step/add"
  op: "Add"
  input: "global_step/cond/Merge"
  input: "global_step/add/y"
  attr {
    key: "T"
    value {
      type: DT_INT64
    }
  }
  attr {
    key: "_output_shapes"
    value {
      list {
        shape {
        }
      }
    }
  }
}
node {
  name: "tensors/component_0"
  op: "Const"
  device: "/device:CPU:0"
  attr {
    key: "_output_shapes"
    value {
      list {
        shape {
          dim {
            size: 1168
          }
        }
      }
    }
  }
  attr {
    key: "dtype"
    value {
      type: DT_DOUBLE
    }
  }
  attr {
    key: "value"
    value {
      tensor {
        dtype: DT_DOUBLE
        tensor_shape {
          dim {
            size: 1168
          }
        }
        tensor_content: "\360-Y\022\326\246\317\2771\230\320M\034S\355?\005\372\224L\301\270\326\277\247h\240\016\365\333\332\277b\226v\331\216\325\363?~N\237\347v\325\366\277@\307]\332\261q\257\277h\006\2511\353E\352\277~N\237\347v\325\366\277\217\244\357\334\310\316\350\277^\036\271xs`\350\277H\325\331\264\246\242\350\277\205\274\377#Q\351\346\277\303!\247\005\271+\360?\020\340\262\351\266A\342\277\214+Inl+\332\277\373\230L^\353\220\353\277\361\2324\316r\312\261\277q\356\361\315\343z\331\277\312\227\353\250\265\203\353?Fa\\\203\251\270\373?\270\272L\314B\034\360\277\trR\255\334-\362\277\270\2735\332\203J\343\277))\340\346\201`\347?\344\350\361\347=\010\273?-\244\377\215\337\020\337?\252\341F}Q\177\351\277\032\310\242\242.\'\344\277\277\255\202\267<\221\340?\270\2735\332\203J\343\277\031\312t\276\260\203\332\277}\323\315y\027\206\364?\202A\207\231r\351\341\277}\323\315y\027\206\364?\273 \206\215ai\260\277\273 \206\215ai\260\277\203C\000\322s\366\352\277\277\255\202\267<\221\340?.\230\202\024\036\362\347\277KPR?\205\242\355\277\'3\344\'Br\305?\311\020\235\301\224\025\342\277\004\3019/\321\002\003@\022]\375\217\027\236\335\277^\313\223\201\021\032\251?\ts;\273\035\\\345\277\230\212f]?\247\341\277\330r\303\023)}\370?H\325\331\264\246\242\350\277\022]\375\217\027\236\335\277\371\233UF\312\214\361?\366\243\353s\356o\367\277\225[\032\246t\341\014@\340[\365\275b\340\352\277\302)\344O\\\277\370?\031\312t\276\260\203\332\277\310\203\356\320\267N\267\277\272\251\377s\205\203\275\277F\\\332b\311\257\354\277\227\022\3675\"\223\373\277j\020\373\253\251\270\315?\376\351FVJ+\247\277\005\006\022\306\202\327\355?(*\311\364\302\216\372?\205\376ut\300\202\005@~\315bK\366N\362\277\264N\014\345\350\305\353?xY\227\340\372\003\340\277h\204\203\207)\221\362\277\303!\247\005\271+\360?\023c\004\266R\247\301?9\371q\037s\312\345\277\264B\217k\'\247\324\277\343\227\247\374/\363\t@\244\367\322\341U\236\326?\330q\332\005\350N\345?\010\177\2704\337z\334?\n%\003#\243\007\233\277\242qm\010v^\360\277\346\317\300(^+\375\277\367\232\320@o\214\314\277\022]\375\217\027\236\335\277\240\371V\304\331\231\347\277\030N\272B\020\006\365\277\313\215\347g\365q\335\277\005u\277\235\241W\306\2773\021\320\237\371E\351?\340[\365\275b\340\352\277:\370\210\0212\234\362\277l\375)\366\2054\361?\242qm\010v^\360\277KPR?\205\242\355\277\201F\t\272R\362\360?\233\213\235\244~6\372?\2145\364\313\253\355\332?\202A\207\231r\351\341\277\203\301\332\'\262A\363\277\352\310\272%\372&\355?\307G\354\236;\301\222\277\260S@\314\312m\365?\347\310l\354\373\305\347\277\2442\'\372U\351\006@\014\356\263E\374[\352\277\314\020\353\372\222v\347?\'\260\340\224\244m\353?\223\230\300\234\005\021\327\277O\310\017\240\240\027\371?\205\276\321?\323E\335\277\264B\217k\'\247\324\277\201\312\000\200\226\003\357\277\264B\217k\'\247\324\277\264B\217k\'\247\324\277\316\004\025\236P\010\343\277\316\004\025\236P\010\343\277\364+\325/R\253\356\277\016g\263\227\331N\346\277\217\244\357\334\310\316\350\277\031\324\037\034\360E\333?\301\250\247\263\3338\364?HS\264\n\345\355\360\277\340[\365\275b\340\352\277{\324\017k\331\003\345\277\035\274sbki\322\277\t\370\020j=\275\345?[\243@\356\224`\343\277H\327\253\320(\377\336\277t\345r\222~i\360\277\317\372\020]\220\366\304\277\026\326\243\376sA\354\277\323\367\243l\313\314\360\277H\226\023i\225\265\002@c\0221U/S\351\277/\021\202f\373\344\343\277[+\321\306wL\375\277\247\354\214\257\323\016\370?\214\2575\017K^\367?q\354\037\262a\036\343\277;\370/.\261L\365?\246\260\201\215\205\254\013@\317\213c\205qv\354?\323\370\214z\014\373\343\277\034E\355H\217\203\337\277\377\017!\261\305\327\343?IN2\352\004\345\321\277\261N\276\253\352d\346\277;tC\215\322\031\330\277\205A\325\322pJ\347?v\337\256\200\334\342\360\277\252\341F}Q\177\351\277\311\277\360\0024\334\253?\354\273\373\272v\212\365\277\225[\032\246t\341\014@\177C\013|\366\344\302\277\367\232\320@o\214\314\277>\355\351\373.\275\346\277\206?\003\267\356\355\320?l}}\204\305\214\342?\371\235\'bL\351\367\277\310o\230\0259\312\245\277\311\241\357\351u\225\311?IN2\352\004\345\321\277\256Y\004\336l\364\364?\310\036\354V\330\220\357?\026\326\243\376sA\354\277\321\005L\345\217\227\373?\252\343\030\231\323\333\337\277\264N\014\345\350\305\353?\212q\261\264\373\356\001@\335\350UuAF\300?\341\225.\304.\346\000@.\230\202\024\036\362\347\277\214+Inl+\332\277\016f\312\211\230 \363\277%\357&\243\304\342\004@j\362\371\222\353q\273\277\310\231\026\250\270/\357\277\241\013\333c\326\301\262?\227\023\340Cc\301\356\277\245k\251\366\323\327\360\277u\352\233\317\335\"\322?\232\0058\313\236\366\323\277;rqqP\275\341\277mx\373c\345\203\363\277;\357m\336\262\270\307\277j\177\250\203\3108\346\277\346\315\356\014\334\316\366?1\230\320M\034S\355?\365\'1\370M\362\341?LOi1Dt\372\277\353:\277\036\366\003\361\277-\025\177\201\200\355\315\277c\024\003q\261\257\337\277\237l\250\323\374\322\274\277\311\034\032;V4\331?\240\355\331J\030{\300\277\370\256&\374\355\020\316?\357\2657\251\324\003\366\277tijX\302z\336\277\276\261&\357@J\355\277 :\234\361\247\025\360?h\204\203\207)\221\362\277\030N\272B\020\006\365\277\014s\211\364\033\275\352?Y6\276\025y\214\336?H\327\253\320(\377\336\2773d\365\226[\214\250\277O\265\242\362b\301\272\277\'=\217\205\2014\266?\314\213\025Ls\025\347\2774xKR\332\020\272\277\373\033P\361\210\225\325?\320\016g\030\017{\306?\302\242<\205\272\001\362\277\304\241\372\223\370\203\341?\'(P\274\301\201\361?\247\353\243\241\222\340\344?\310o\230\0259\312\245\277\277\255\202\267<\221\340?\256\337\302\232\315\203\330?\205\274\377#Q\351\346\277\302\257\242\014\275N\334?\200\315\thu\377\364?\321~\244\032\356\331\364\277~\324]\244\327d\352?I\335\262\366c\010\303?\314\212,>2\347\363\277L\307\330Xa\210\340\277\201\312\000\200\226\003\357\277\333g}\341\246\355\351\277\214)wR\352\316\343\277\236\3761\310:\362\363\277\252\341F}Q\177\351\277\005\211\025Y \334\307?v\340\227\216\035\021\344\277\314\212,>2\347\363\277k\207\201\305\205\236\300?\334\342NO\006=\334\277\311\277\360\0024\334\253?\004\177\303\336ai\344\277\307\226\264av\364\362\277\026\\b\273\324\320\377?\343O\306}\237\"\331\277\370\242\251\202,\362\346?@f\351M\014\260\342\277\276\261&\357@J\355\277))\340\346\201`\347?@\307]\332\261q\257\277.\021\333I|4\321\277\206\276x\\R\366\357\277PAh\325\376Y\362\277;\373\352Wt\327\356\277\022]\375\217\027\236\335\277\210\265R\004n4\364\277\014j\364\265d\243a\277c\217-\302\221N\317\277\005\201<\027cv\355\277~N\237\347v\325\366\277 \276\223\267\353&\356\277\014\366\214\207\271\301\304?B\245}\225*\206\001@k\207\201\305\205\236\300?\205\274\377#Q\351\346\277\nr\371\311[\336\364?4\213\270\377\027g\370?\205\274\377#Q\351\346\277Y6\276\025y\214\336?\340[\365\275b\340\352\277`\231\212\346\322\257\332\277\214(\216D\251\240\360\277\360q\226Yb\276\003@Y6\276\025y\214\336?\023O\256\372\323\"\300\277}\325\237\225\231\342\372\277Bp;\310\312\"\306?4\007\314^94\333\277\006\370\3020?\\\340\277U=\304\030\335\220\376?\366)\2520O\377\352?\177\310\340*\026F\323\277\270\2735\332\203J\343\277~N\237\347v\325\366\277FYx\034\207t\360\277\234\007X \037\264\357\277\247\354\214\257\323\016\370?,\244Xq``\354?\235~\3369\373\231\342\277BR:\257\014\334\263\277V\275\027\247\034\351\357?:\370\210\0212\234\362\277\034\301\365\202Kr\361\277\252\341F}Q\177\351\277\376\226\310{g\225\332?%\262\013\224\247\031\357\277\017i,\320\332[\357\277\001\010\226\250\006\323\336\277\223\230\300\234\005\021\327\277\205\274\377#Q\351\346\277D\340x\312\251\201\364\277\017i,\320\332[\357\277j\004~2\350\231\346?\243\371\244\375\327\372\354?e\2130\247\014F\345\277\376\007Ho\010r\311\277\322\375\016\233\354\003\363?\206\316\203\303M\021\262?\261q$\340\177,\207?\376\214\035\036(\323\331\277bW\211\256\357\257\007@\215+\360\212\353\333\354\277\314\212,>2\347\363\277\306\234\037\220\227+\365?\206\276x\\R\366\357\277\240\005\324=\233\270\336?\'\244c\033\343N\324\277-\026]j\\=\360\277\377%I\210\306\270\273?\227\221\272\231\241\014\367\277\\+x\343\366\374\377?\264B\217k\'\247\324\277wg\346u>\177\355?x\352\351\010\334\203\307?\317\177\346\013\260W\325\277\252\341F}Q\177\351\277qr\336n\302\255\366?b\226v\331\216\325\363?~O\210\365\267\003\352\277g\020\255r\253W\330?a\036\007\262q\301\355?\252\341F}Q\177\351\277Bp;\310\312\"\306?\207\272\324$N=\343?KPR?\205\242\355\277H\341V.h\301\337?\264G\021\214\007\260\363\277\314\004n\201\321W\320\277\032H\3660n\177\365\277\254Y]\301\355C\362\277\000\214\333,fU\371\277?r\277\252N\036\347?^\234\223\316\261\253\360\277\252\341F}Q\177\351\277\020\340\262\351\266A\342\277g\t\262\031\312A\360?\030O\243PQ4\350\277\223\230\300\234\005\021\327\277Cg \225K?\373?L\307\330Xa\210\340\277\331sS>\351[\356?g\0040\371\3518\341\277\227\230\265\362\202\"\357?\223\\\203v\304\227\003@\256Y\004\336l\364\364?\223\242k\372D\323\327?\377\020\n\277\006\006\367?\256\323E!\014e\341\277\010u\r\327\237\270\333\277\242qm\010v^\360\277\222\037hg\247\316\355\277\230P\373R\200\212\004@\237l\250\323\374\322\274\277\305\035\265\017\231\001\367\277\265L:\311fi\325?\217\246\301\370J+\337\277\310o\230\0259\312\245\277\2766\374\235`\253\355?\235\212[\263\274\270\331?\314\212,>2\347\363\277j\004~2\350\231\346?.\035X\303=S\350?v\337\256\200\334\342\360\277\337Y|\205a\323\341\277\332\352\331W\305A\341?mx\373c\345\203\363\277\273B+\336#i\337?\371\037M\014\016\236\357\277^\363?\370\016#\234?\333\355;\236\007}\375?\346\317\300(^+\375\2771\020@u9g\363?O\277MP\242\203\313\277\005~\201\355\237\353\363?;\373\352Wt\327\356\2773<I ^\203\225\277OBQ\343?\210\345\277\314\004n\201\321W\320\277\311\034\032;V4\331?\022\330\'\341\367<\315\277\237}\234H9\034\362?\214\246s\277L\312\311\277\311\020\235\301\224\025\342\277\020\347\255B\230W\372?\256\323E!\014e\341\277\300\260\344\375~\314\374?\361\206\336\022\364E\240\277\340\340\312l\202A\353?\013\354:\r\373N\341\277{\324\017k\331\003\345\277\377%I\210\306\270\273?\014\356\263E\374[\352\277:\370\210\0212\234\362\277qr\336n\302\255\366? 7\354\354Ii\327\277\255PB\216n`\307\277\023O\256\372\323\"\300\277\252\341F}Q\177\351\277\005\372\224L\301\270\326\2776\004\270Q\365Y\364?i\003\356\007(\273\360?\376\226\310{g\225\332?\347A\305!Z\010\321\277\373\035\"\r\013\362\353?\233\004\366\331\334x\363\277\216\251q\375\250\327\367?\220\'\363of\323\322?\n\262\317\002<2\004@\252\341F}Q\177\351\277]\217\221O\225\214\264\277\251e\214\001\261\001\364?\264B\217k\'\247\324\277\347\310l\354\373\305\347\277\\*\217\325\265\316\354?\376\226\310{g\225\332?nsyC\005{\324\277\ts;\273\035\\\345\277\270\2735\332\203J\343\277\223\033\304/\243\025\341?\214(\216D\251\240\360\277\232\224\270\327\375\031\305?\ts;\273\035\\\345\277\252\341F}Q\177\351\277\035\274sbki\322\277\272;0\205BS\367?IN2\352\004\345\321\277\332\210j\335:\250\201?w\342\020\307\036\036\355\277D\340x\312\251\201\364\277\344\217j\262\214_\001@*\243\310F\240\201\366?\272\263\252\321\304E\316\277\275\256\304\250\376\016\361\277iC\304@\010\017\000@F\\\332b\311\257\354\277x\336l\217\032e\340?\220\035H\022\'\021\322\277\364\244-e\260\355\327\277\210\265R\004n4\364\277>\357\273\027\261\031\335\277]\231<\255\324N\305\277\326\354]:I=\322\277\323\370\214z\014\373\343\277\014\330\213n\373z\262\277C\346\343\370\312\270\366?\014\3426\314:=\303\277\255\325\027=\216\301\327\277\3613`8\021\260\323?\361\2324\316r\312\261\277\340\340\312l\202A\353?\222\t@\220\246\355\265\277.\021\333I|4\321\277\214+Inl+\332\277\023ZBfT\023\364\277\330r\303\023)}\370?,\034\310\230}t\362?E\3376\331\347\003\344?\242\271\'\250x\366\n@\256\334\332_\303~j?\2766\374\235`\253\355?\177\322\213\210U\010\324?\321\005L\345\217\227\373?KPR?\205\242\355\277\264B\217k\'\247\324\277`\227\270\312PS\344\277\026\326\243\376sA\354\277\365\242[I.\221\341\277\025\227\335\262bT\006@\373\021\245\223I\323\324\277\307\226\264av\364\362\277\304\034%\345\330\"\341\277\344\336F\212\376E\312?\252\341F}Q\177\351\277\027T%q1=\367?\326\354]:I=\322\277j\362\371\222\353q\273\277\033\307`\261l\251\363?-\025\177\201\200\355\315\277[(\026\235\264\301\343?\224\230g\271\204\301\351\277\2130\313\216L4\371\277~\324]\244\327d\352?\033\307`\261l\251\363?\375\226!_\350\344\347?\223\034\255=\344C\364?\321\005L\345\217\227\373?\223\023\353\355\345\257\306\277\314\213\025Ls\025\347\277\365\242[I.\221\341\277\366\243\353s\356o\367\277h\204\203\207)\221\362\277\2114\275\204l^\362?\245/E\361\004&\007@~O\210\365\267\003\352\277r\356\230\352b+\354\277n}$\241D=\325?\nr\371\311[\336\364?\207\272\324$N=\343?6D\216\212\325\255\003@\256\323E!\014e\341\277\260\322\0030J\347\360?\275\257\255\266?=\344\277O\307&\222_\351\345?*\037\334\245\301N\331\277\2755ls\240\314\367?\325x\207%\313\003\370?V,\305~;i\310\277\270\272L\314B\034\360\277\326\370\332\263\n\\\351?~O\210\365\267\003\352\277\334]y\240\346\333\313\277OD#\377\301\344\333\277\330r\303\023)}\370?\275\256\304\250\376\016\361\277\245\354\345\222T^\365\277\343\326mHA\340\357\2773d\365\226[\214\250\277]\231<\255\324N\305\277r\356\230\352b+\354\277\346\312>\010~\"\336\277\223\033\304/\243\025\341?\340[\365\275b\340\352\277j\362\371\222\353q\273\277\247\250DC\342\030\003@\367\037\246\357\216\355\334\277\030\324x\377p\225\350?\202\306\\H\222J\342?\344\336F\212\376E\312?j\177\250\203\3108\346\277\ts;\273\035\\\345\277\337\337:B\302b\365?\344\322\311\020=\'\343?\001\307\375@s\211\002@d\213\211\212\215\225\322\277\335\354\371\254E\377\334?\247h\240\016\365\333\332\277%\257Pj\344\216\365?H\332[\325\206\253\367?\ts;\273\035\\\345\277\323\370\214z\014\373\343\277~\315bK\366N\362\277\264B\217k\'\247\324\277Z\355\363\210\247\215\n@\231\200b\034\177\225\303\277\361)\265\332\321\355\322\277\227\023\340Cc\301\356\2773<I ^\203\225\277Qh+>\2734\242?\350\003\217\000\t\372\000\300\314\213\025Ls\025\347\277\'3\344\'Br\305?V5\207\3169\375\365?\227\022\3675\"\223\373\277\242yQo\230\242\373?\337\337:B\302b\365?\304\034%\345\330\"\341\277j\004~2\350\231\346?Y*A\234\267m\347\277\273 \206\215ai\260\277\017i,\320\332[\357\277\373\035\"\r\013\362\353?\377%I\210\306\270\273?x\336l\217\032e\340?3<I ^\203\225\277\207\273\2752\217k\366?\266B6\210\246W\347\277\274>\207\246\037\260\302?\257S\231\257K\275\362\277\016g\263\227\331N\346\277\300\250\000\227\\\210\361\277N\306\226g\237\n\360?,\034\310\230}t\362?]\267=\306\222\225\267?\\*\217\325\265\316\354?\005\276W&\200?\003@\302\243%\223\373/\345\277\026\326\243\376sA\354\277\222\t@\220\246\355\265\277SB\237\034>\351\352?tijX\302z\336\277c\0221U/S\351\277\2231\354\006\244\366\270?\310\203\356\320\267N\267\277\312\022\026\372\225\"\353\277\207\n\206\365\311\236\226?l\370\247\325\245+\342\277D\340x\312\251\201\364\277\346\317\300(^+\375\277.\035X\303=S\350?\014\366\214\207\271\301\304?1\230\320M\034S\355?\343Yq\333\336\344\331?\027\224\373\251\021\221\006@k\207\201\305\205\236\300?\361)\265\332\321\355\322\277\347MB\233\033\'\350?\241\0010\006\227\377\301?\000\214\333,fU\371\277\274\\\210\277\335\366\244?tg\230<@\036\350\277\335\354\371\254E\377\334?d\213\211\212\215\225\322\277g\020\255r\253W\330?\020\340\262\351\266A\342\277\273 \206\215ai\260\277y[\020\031\374\020\351\277S\272\016D[\375\360?\255PB\216n`\307\277\226\226<\272\201\025\346?\252\341F}Q\177\351\277@\353\276\374+\021\343?6\004\270Q\365Y\364?;rqqP\275\341\277\021b\177\260\367\246\374\277H\327\253\320(\377\336\277\3565\344\032\225\253\344\277\377\020\n\277\006\006\367?\277(\255\010\0350\340\277\375\226!_\350\344\347?\220\035H\022\'\021\322\277\264B\217k\'\247\324\277\344\336F\212\376E\312?\264B\217k\'\247\324\277/\227@#\\t\367?\336g\313\032\245N\357?,\244Xq``\354?\234\203`Z\333\242\361?\241\0010\006\227\377\301?\343Rv\202\375\316\361?q\356\361\315\343z\331\277\272\263\252\321\304E\316\277\252\341F}Q\177\351\277\000\212\t\021\344\370\362?\337\233\362\325\320l\000@\'+\013\346\204\014\353\277\337\337:B\302b\365?\305\227\366R8r\323\277!\275Q\306)\251\375?T\273\236n\033\334\346?\202A\207\231r\351\341\277\205\276\321?\323E\335\277\022]\375\217\027\236\335\277IN2\352\004\345\321\277\226\227%\310\302C\371?C\341a\330\352\257\347\2778\005H|\2658\352?\271\275\256\022\205W\354\277\200NF\004\366\205\371?}\322\344k\326W\341?\225[\032\246t\341\014@\\\242W\340S2\360\277j\362\371\222\353q\273\277\344\322\311\020=\'\343?\030N\272B\020\006\365\277x\234\366>\253\313\001\300\021\341B\024w \370\277O\307&\222_\351\345?\346L\262p[H\362?\234\007X \037\264\357\277\206?\003\267\356\355\320?j\177\250\203\3108\346\277\264\006n`<\332s\277\332e\004\251\245\340\340\277\333\354R\220\306N\352?\256d\230I\355\344\310?\252\341F}Q\177\351\277\274\\\210\277\335\366\244?\376\007Ho\010r\311\277\177\322\213\210U\010\324?\337Y|\205a\323\341\277\355:f;u\264\363?-\244\377\215\337\020\337?>\256#\260\035\320\000@\327{\336F\250`\303?\347\310l\354\373\305\347\277\275\256\304\250\376\016\361\277\307\226\264av\364\362\277v\031`\244\305\311\235\277KPR?\205\242\355\277\263L\223\254\347\270\342?\274H2\004_r\263?4\005\372B\267\327\344\277\333\355;\236\007}\375?@kkn\354\270\361?!\272\357\177\347m\341?\206zW\317\3568\001@\311\241\357\351u\225\311?5\264M\204V\236\256?\227\022\3675\"\223\373\277\035\274sbki\322\277\226\0239\'\344\020\334\277y\341\316\325\\\240\374?\305\244\\\332:\277\375?f\215\251\337\rS\356\277\373\230L^\353\220\353\277\026O\3743\322\203\325\277\345\325+W\177b\377?x\352\351\010\334\203\307?@f\351M\014\260\342\277g\0040\371\3518\341\277E\340\037\347(2\367?Z\243\231\321\025\260\320\277\344\336F\212\376E\312?\303!\247\005\271+\360?~N\237\347v\325\366\277LOi1Dt\372\277\230\020%\032\2406\365?\310o\230\0259\312\245\277\270\30203e`\373?\255\330\307A\354m\360?\250\355\034\332\223\355\355?\275\256\304\250\376\016\361\277\312\227\353\250\265\203\353?\346\317\300(^+\375\277\030N\272B\020\006\365\277d\213\211\212\215\225\322\277\321@\307\334\035\033\002@\343\300Eq@\377\267\277\376\375\234\021\311\257\270\277\302\252 \354\334E\375?t\354m\353_\177\350?\311\034\032;V4\331?\255F\2270/\236\266\277\312\022\026\372\225\"\353\277\200\310\207G\225\366\345\277\016\354\210F\371\257\346?\351\307*\3739H\367?\013\354:\r\373N\341\277\242qm\010v^\360\277\346\315\356\014\334\316\366?X\256\206 \027\360\361?\002\006\304\214\204v\350\277KPR?\205\242\355\277<\367F p\036\342?.\035X\303=S\350?\272\263\252\321\304E\316\277\364+\325/R\253\356\277\255F\2270/\236\266\277\262\314?\036\250`\361?\232\na\010\376\257\365?\307\226\264av\364\362\277\005u\277\235\241W\306\277\242\367+\305\326\355\343?\256\337\302\232\315\203\330?PAh\325\376Y\362\277\370\243\222\220m \372?$3\226\356C\021\320?\3527h\375\030\247\305\277j\374\244\360*4\314\277\255\\\277\0070\177\356\277\367)QM\316\257\335?\255\325\027=\216\301\327\277H\341V.h\301\337?]\255\222hS\323\306?\276*\177$\237\214\326\277\244\367\322\341U\236\326?5\004\0215v\251\361\277/\327\026\\<\310\006@<\367F p\036\342?\241|ZWw\236\321?1\023\373\236\374\361\354\277\377\020\n\277\006\006\367?\252\341F}Q\177\351\277\006\370\3020?\\\340\277\340\336\370P\000\345\324?`\2435D\022r\333?\027T%q1=\367?^\234\223\316\261\253\360\277\311\034\032;V4\331?v\337\256\200\334\342\360\277\367\232\320@o\214\314\277\\#\224|\324\270\364\277:\370\210\0212\234\362\277`\231\212\346\322\257\332\277\340[\365\275b\340\352\277O\310\017\240\240\027\371?\347\310l\354\373\305\347\277\344\336F\212\376E\312?\233\005\337\347\035\247\346\277\225[\032\246t\341\014@H\341V.h\301\337?\026\326\243\376sA\354\277\226\0239\'\344\020\334\277\264\212p\352\267w\005@\330r\303\023)}\370?c\0221U/S\351\277\177\310\340*\026F\323\277\252\341F}Q\177\351\277q\354\037\262a\036\343\277\\{;\224\026\010\243\277\322\375\016\233\354\003\363?\273\307\000\215C\312\317?\224\026B\017\303\014\362\277\361\206\336\022\364E\240\277xe\024Z\274\"\327?\ts;\273\035\\\345\277t\345r\222~i\360\277\347MB\233\033\'\350?\237XR\030~N\253\277d\006\264\333m4\302\277\310\231\026\250\270/\357\277\265G\270\250\206`\366?y[\020\031\374\020\351\2773d\365\226[\214\250\277\273*1\353\240+\301\277\261q$\340\177,\207?X\260X<\231L\370\277j\004~2\350\231\346?\205\274\377#Q\351\346\2774\202\366\257\031\323\312\277}M\017\275\266\366\340\277\030N\272B\020\006\365\277\221\034\006!e\223\361\277g\0040\371\3518\341\277f\215\251\337\rS\356\277OBQ\343?\210\345\277\274\271\261\367\377N\322?\375\021L\260\310\203\347\277\205\310|\235\022\010\336?i\005\300#\252\027\367\277l~f\222\006\273\365?r0\017;\322\304\n@c\220\013\253m\236\361\2775\014\365\233\230\355\374?\274>\207\246\037\260\302?\235~\3369\373\231\342\277\ts;\273\035\\\345\277KM\360\370Bg\361\277\020\340\262\351\266A\342\277EZa*\310\242\343\277\347\307\203\336\272\227\364\277O\277MP\242\203\313\277\240\370m\266\230k\364\277\310\231\026\250\270/\357\277\240r\257\3717\334\320\277\236\3761\310:\362\363\277\331\356}\217\311\372\355\277\177\310\340*\026F\323\277\202\306\\H\222J\342?\005\004@\252\000{\327?\205\276\321?\323E\335\277\235~\3369\373\231\342\277HR\326!\t\236\316\277\274\271\261\367\377N\322?\361\2705\3470\021\304?EZa*\310\242\343\277h\006\2511\353E\352\277{\326\341\206[`\333\277\'\260\340\224\244m\353?\217\243\006\317\207\240\365\277\305\036\236\035\332/\352\277\ts;\273\035\\\345\277E\345\314S\275\266A?\3564\373\014T}\361\277\006\370\3020?\\\340\277]\036\022\\\364\257\325\2778\200r\315\225\327\351\277|\326\210\243\332\020\356\277\3603\271\033\222\377\340?.\033\206\247\273\366\321?\302\242<\205\272\001\362\277\023\324\203\251\363\203\320\2776\007s{\270\344\355\277\227\022\3675\"\223\373\277\223\\\203v\304\227\003@\357\2742\002\266\031\356?\205\273\026\026\020\273\363\277g\0040\371\3518\341\277\264B\217k\'\247\324\277\264B\217k\'\247\324\277\016g\263\227\331N\346\277PT\325\202<\260\260?~\324]\244\327d\352?\223\226\356\200\203\264\340\277O\277MP\242\203\313\277{\331\221\213\271\014\364?;~\356\352\021\334\330?\302)\344O\\\277\370?\255\325\027=\216\301\327\277\022g\250\355V`\336?\205\274\377#Q\351\346\277y`\2229\334\031\370?\265\321\017x\206\312\305?-)\325<\377q\317?\ts;\273\035\\\345\277\021\341B\024w \370\277\2075\377u.\334\342\277\343\326mHA\340\357\277\307\226\264av\364\362\277\240\272\220x\310\254\001@4\n|c\227\340\363?\244q\024%\365\016\363?v\031`\244\305\311\235\277\000\212\t\021\344\370\362?V4\236\300\370\316\342?\006\370\3020?\\\340\277\335\"\363\203\363y\004@\214(\216D\251\240\360\277\017i,\320\332[\357\277\244\362P\301u\225\367?1\020@u9g\363?\363)\\\367P\236\345\277!\272\357\177\347m\341?.\230\202\024\036\362\347\277\230\020%\032\2406\365?\026\326\243\376sA\354\277\235\200\260U}\366\330\277\256\323E!\014e\341\277\376\007Ho\010r\311\277\030N\272B\020\006\365\2778\200r\315\225\327\351\277\234\007X \037\264\357\277\366\244\324\201/\236\352\277\210Z\336\342\304\260\214?8\200r\315\225\327\351\277\307G\354\236;\301\222\277+\235]\030\177J\364\277\255\330\307A\354m\360?\226\035\344\204#\323\334?y\331\352n:\\\361\277|\326\210\243\332\020\356\2773\021\320\237\371E\351?\255\341\224\266O\340\356?\335\354\371\254E\377\334?\376\033\236*\207\366\312?\226\0239\'\344\020\334\277\002\177\034\302\342\270\321\277\243\371\244\375\327\372\354?\301\250\247\263\3338\364?\274H2\004_r\263?8\005H|\2658\352?\327{\336F\250`\303?\332\353\302e\006p\364?\030N\272B\020\006\365\277.\021\333I|4\321\277\364+\325/R\253\356\277\301+\266k\336\033\377\277\252_!\323\217\312\361\277\314\213\025Ls\025\347\277\362\302\340Dp\323\264?\214\256L\001\n0\344?g\0040\371\3518\341\277\340[\365\275b\340\352\277\347\324\351e\275\344\336?\\\242W\340S2\360\277\020\340\262\351\266A\342\277^\313\223\201\021\032\251?`\231\212\346\322\257\332\277\330r\303\023)}\370?\275\256\304\250\376\016\361\277\255[\326\371\356P\373\277=s\001\234\020\234\367\277\346\317\300(^+\375\277\242rV\026\267\214\343\277\310o\230\0259\312\245\277\352\274=\2548\010\326\277\261q$\340\177,\207?\013a\005U\037\225\277\277\221\243\255\353\006Q\370?\030N\272B\020\006\365\277W\261AJ\332z\353\277\343\312\360\316\177\301\310\277\252\341F}Q\177\351\277\034\311\331\351m\266\374?\241y\252R\031\362\370\277\ts;\273\035\\\345\277\261q$\340\177,\207?\004\177\303\336ai\344\277OBQ\343?\210\345\277\264B\217k\'\247\324\277\373\230L^\353\220\353\277\336\037\021{\242\266\004@\203C\000\322s\366\352\277~\314\204b\032\377\317\277IX\335GD\247\322?g\0040\371\3518\341\277\3527h\375\030\247\305\277tg\230<@\036\350\277\240\355\331J\030{\300\277E\3376\331\347\003\344?\215+\360\212\353\333\354\277\223\034\255=\344C\364?\247\367 \033T\377\313?v\337\256\200\334\342\360\277\304\242\343\2419\262\364?\200M]\366\264W\346?\377%I\210\306\270\273?\257S\231\257K\275\362\277O\307&\222_\351\345?i\005\300#\252\027\367\277\227\217\350}\037\260\360?\025\323A\2701\006\360\277h\006\2511\353E\352\277\252\341F}Q\177\351\277\252\341F}Q\177\351\277(*\311\364\302\216\372?IN2\352\004\345\321\277$\260\222[\246\014\346\277\'\260\340\224\244m\353?\373\230L^\353\220\353\277.\230\202\024\036\362\347\277\343\312\360\316\177\301\310\277\030N\272B\020\006\365\2777A\254\201\204\352\003@h\006\2511\353E\352\277\370\240\327f\252\225\320?\nu\264\363\036i\356\277Y\257\026K\327\316\347?<\367F p\036\342?\242qm\010v^\360\277\005u\277\235\241W\306\277d\2254\350\314W\323?\\*\217\325\265\316\354?\017i,\320\332[\357\277\205\276\321?\323E\335\277\017\354/cx`\331?r\356\230\352b+\354\277\014\330\213n\373z\262\277B\341\272\273k\377\324\277T6\311\277\373z\346\2775\264M\204V\236\256?\205\274\377#Q\351\346\277\206:\201\226\016\345\361?\340[\365\275b\340\352\277\3577]S\226\270\355\277\275\257\255\266?=\344\277!\272\357\177\347m\341?\035\310\360\333,\210\351?E\3376\331\347\003\344?tijX\302z\336\277\264\31166\311d\353\277GY\0379\006%\363?\220\"qO\206\312\363?\367\"V\364\354\231\365?~N\237\347v\325\366\277\001\307\375@s\211\002@ \276\223\267\353&\356\277MO\020N\303$\375?V4\236\300\370\316\342?g\020\255r\253W\330?\031Y\365\312\017\247\313?O\323\243\013!\010\315?\270\30203e`\373?\033\026)t\247\334\223?\373\225\2214(\006\362?\261P\220\307l\301\334\277\343\312\360\316\177\301\310\277\374\322\205d\267\226\001@ \276\223\267\353&\356\277IX\335GD\247\322?\227\221\272\231\241\014\367\277l~f\222\006\273\365?\233\004\366\331\334x\363\277\023\336.\0073F\321?\031Na_\217\266\367?\366\243\353s\356o\367\277\361)\265\332\321\355\322\277\273\307\000\215C\312\317?\205\276\321?\323E\335\277j\374\244\360*4\314\277c\024\003q\261\257\337\277\342Y\312\276_4\347?\352\274=\2548\010\326\277\013M\257\231\240\020\256\277\373\035\"\r\013\362\353?\310\025\037\342t\036\361?\2231\354\006\244\366\270?\252\341F}Q\177\351\277IN2\352\004\345\321\277O\335Ni`\312\275?\222\365\351\324\'i\244\277\255PB\216n`\307\277v\337\256\200\334\342\360\277E\3376\331\347\003\344?:\370\210\0212\234\362\277\035\274sbki\322\277\347MB\233\033\'\350?\211\272{A\315\355\325?FYx\034\207t\360\277\177\317\333\203\367[\373\277\252_!\323\217\312\361\277\203C\000\322s\366\352\277\256Y\004\336l\364\364?\255\341\224\266O\340\356?Be\247\\J2\362?{\324\017k\331\003\345\277\264B\217k\'\247\324\277\ts;\273\035\\\345\277\222\365\351\324\'i\244\277\207\273\2752\217k\366?\266\003p<\225j\001@\032\310\242\242.\'\344\277\205\276\321?\323E\335\277\353:\277\036\366\003\361\277\206?\003\267\356\355\320?\265\306{\014\006\332\361?x\326\223M]\377\305\277\346\317\300(^+\375\277c\024\003q\261\257\337\277ox\242\200d4\366?O\277MP\242\203\313\277\217e)\221\267\341\002@>\355\351\373.\275\346\277\271\274\305\004D)\371\277U8B\370\374\207\357\277\202A\207\231r\351\341\277\207\273\2752\217k\366?f\022\177\216-\264\356?\302)\344O\\\277\370?wg\346u>\177\355?\275\256\304\250\376\016\361\277KM\360\370Bg\361\277\240\355\331J\030{\300\277\365\'1\370M\362\341?\022\354}\234v\301\316?\347\324\351e\275\344\336?x\364\224f\033F\270?\'\025\343\016\204+\263\277\nu\264\363\036i\356\277\023\340\000#\265\242\347?xe\024Z\274\"\327?\373\230L^\353\220\353\277\270\2735\332\203J\343\277\252\341F}Q\177\351\277y\331\352n:\\\361\277j\004~2\350\231\346?\312\230\324\266\366\261\376?V\275\027\247\034\351\357?\302\242<\205\272\001\362\277~N\237\347v\325\366\277\377%I\210\306\270\273?\177L\315\313\364x\360?\030\324x\377p\225\350?\325\346V\024\0164\276\277\362\302\340Dp\323\264?@f\351M\014\260\342\277E\345\314S\275\266A?\005\004@\252\000{\327?\373\230L^\353\220\353\277]\231<\255\324N\305\277\010u\r\327\237\270\333\277\256\323E!\014e\341\277;w\363\2210\306\360?\033\026)t\247\334\223?;tC\215\322\031\330\277\273\307\000\215C\312\317?\030N\272B\020\006\365\277\264B\217k\'\247\324\277\245k\251\366\323\327\360\277\206\304\330e\016O\301?\225[\032\246t\341\014@\260!\314\362\204\032\221?\207\n\206\365\311\236\226?\240vS1<\225\315\277\306\241\241\260w4\324?)\244\n8b\377\346\277\271B\204\301\244\270\354?\214(\216D\251\240\360\277\247h\240\016\365\333\332\2774\007\314^94\333\277"
      }
    }
  }
}
node {
  name: "tensors/component_1"
  op: "Const"
  device: "/device:CPU:0"
  attr {
    key: "_output_shapes"
    value {
      list {
        shape {
          dim {
            size: 1168
          }
        }
      }
    }
  }
  attr {
    key: "dtype"
    value {
      type: DT_DOUBLE
    }
  }
  attr {
    key: "value"
    value {
      tensor {
        dtype: DT_DOUBLE
        tensor_shape {
          dim {
            size: 1168
          }
        }
        tensor_content: "6\211\230G9i\360\277p\331\334\237VC\351?6\211\230G9i\360\277p\331\334\237VC\351?p\331\334\237VC\351?6\211\230G9i\360\2776\211\230G9i\360\277p\331\334\237VC\351?6\211\230G9i\360\2776\211\230G9i\360\277p\331\334\237VC\351?6\211\230G9i\360\2776\211\230G9i\360\277p\331\334\237VC\351?p\331\334\237VC\351?6\211\230G9i\360\277p\331\334\237VC\351?6\211\230G9i\360\2776\211\230G9i\360\277p\331\334\237VC\351?p\331\334\237VC\351?p\331\334\237VC\351?p\331\334\237VC\351?6\211\230G9i\360\277p\331\334\237VC\351?p\331\334\237VC\351?p\331\334\237VC\351?6\211\230G9i\360\277p\331\334\237VC\351?p\331\334\237VC\351?6\211\230G9i\360\277p\331\334\237VC\351?S\261\272\363G\326\004@6\211\230G9i\360\277p\331\334\237VC\351?6\211\230G9i\360\2776\211\230G9i\360\277p\331\334\237VC\351?p\331\334\237VC\351?6\211\230G9i\360\2776\211\230G9i\360\277p\331\334\237VC\351?6\211\230G9i\360\277p\331\334\237VC\351?6\211\230G9i\360\277p\331\334\237VC\351?6\211\230G9i\360\2776\211\230G9i\360\277p\331\334\237VC\351?6\211\230G9i\360\2776\211\230G9i\360\277p\331\334\237VC\351?6\211\230G9i\360\277p\331\334\237VC\351?6\211\230G9i\360\277p\331\334\237VC\351?p\331\334\237VC\351?p\331\334\237VC\351?6\211\230G9i\360\2776\211\230G9i\360\2776\211\230G9i\360\2776\211\230G9i\360\277p\331\334\237VC\351?p\331\334\237VC\351?p\331\334\237VC\351?p\331\334\237VC\351?6\211\230G9i\360\277p\331\334\237VC\351?6\211\230G9i\360\277p\331\334\237VC\351?p\331\334\237VC\351?6\211\230G9i\360\2776\211\230G9i\360\277p\331\334\237VC\351?p\331\334\237VC\351?6\211\230G9i\360\277p\331\334\237VC\351?p\331\334\237VC\351?6\211\230G9i\360\2776\211\230G9i\360\2776\211\230G9i\360\2776\211\230G9i\360\2776\211\230G9i\360\2776\211\230G9i\360\2776\211\230G9i\360\2776\211\230G9i\360\277p\331\334\237VC\351?6\211\230G9i\360\2776\211\230G9i\360\277p\331\334\237VC\351?6\211\230G9i\360\277p\331\334\237VC\351?6\211\230G9i\360\277p\331\334\237VC\351?p\331\334\237VC\351?p\331\334\237VC\351?p\331\334\237VC\351?p\331\334\237VC\351?p\331\334\237VC\351?p\331\334\237VC\351?p\331\334\237VC\351?p\331\334\237VC\351?p\331\334\237VC\351?6\211\230G9i\360\2776\211\230G9i\360\2776\211\230G9i\360\2776\211\230G9i\360\277p\331\334\237VC\351?6\211\230G9i\360\2776\211\230G9i\360\2776\211\230G9i\360\277p\331\334\237VC\351?6\211\230G9i\360\2776\211\230G9i\360\277p\331\334\237VC\351?6\211\230G9i\360\2776\211\230G9i\360\2776\211\230G9i\360\277p\331\334\237VC\351?p\331\334\237VC\351?6\211\230G9i\360\2776\211\230G9i\360\277p\331\334\237VC\351?6\211\230G9i\360\277p\331\334\237VC\351?6\211\230G9i\360\277p\331\334\237VC\351?6\211\230G9i\360\2776\211\230G9i\360\277p\331\334\237VC\351?p\331\334\237VC\351?p\331\334\237VC\351?p\331\334\237VC\351?6\211\230G9i\360\277\223\277\217\357\016\272\006\300p\331\334\237VC\351?6\211\230G9i\360\2776\211\230G9i\360\277p\331\334\237VC\351?S\261\272\363G\326\004@p\331\334\237VC\351?6\211\230G9i\360\277p\331\334\237VC\351?p\331\334\237VC\351?6\211\230G9i\360\2776\211\230G9i\360\2776\211\230G9i\360\277p\331\334\237VC\351?6\211\230G9i\360\2776\211\230G9i\360\2776\211\230G9i\360\2776\211\230G9i\360\277S\261\272\363G\326\004@p\331\334\237VC\351?6\211\230G9i\360\277p\331\334\237VC\351?\223\277\217\357\016\272\006\3006\211\230G9i\360\2776\211\230G9i\360\2776\211\230G9i\360\277p\331\334\237VC\351?\223\277\217\357\016\272\006\300p\331\334\237VC\351?6\211\230G9i\360\2776\211\230G9i\360\277p\331\334\237VC\351?p\331\334\237VC\351?p\331\334\237VC\351?S\261\272\363G\326\004@p\331\334\237VC\351?p\331\334\237VC\351?6\211\230G9i\360\277p\331\334\237VC\351?p\331\334\237VC\351?p\331\334\237VC\351?p\331\334\237VC\351?6\211\230G9i\360\277p\331\334\237VC\351?6\211\230G9i\360\277p\331\334\237VC\351?p\331\334\237VC\351?6\211\230G9i\360\2776\211\230G9i\360\2776\211\230G9i\360\277p\331\334\237VC\351?p\331\334\237VC\351?p\331\334\237VC\351?p\331\334\237VC\351?p\331\334\237VC\351?6\211\230G9i\360\2776\211\230G9i\360\2776\211\230G9i\360\2776\211\230G9i\360\2776\211\230G9i\360\277p\331\334\237VC\351?S\261\272\363G\326\004@6\211\230G9i\360\2776\211\230G9i\360\277p\331\334\237VC\351?6\211\230G9i\360\277p\331\334\237VC\351?p\331\334\237VC\351?6\211\230G9i\360\277p\331\334\237VC\351?p\331\334\237VC\351?p\331\334\237VC\351?p\331\334\237VC\351?6\211\230G9i\360\2776\211\230G9i\360\2776\211\230G9i\360\277p\331\334\237VC\351?6\211\230G9i\360\2776\211\230G9i\360\277p\331\334\237VC\351?6\211\230G9i\360\277p\331\334\237VC\351?\223\277\217\357\016\272\006\3006\211\230G9i\360\2776\211\230G9i\360\277p\331\334\237VC\351?6\211\230G9i\360\277p\331\334\237VC\351?p\331\334\237VC\351?6\211\230G9i\360\277p\331\334\237VC\351?6\211\230G9i\360\2776\211\230G9i\360\277p\331\334\237VC\351?6\211\230G9i\360\2776\211\230G9i\360\2776\211\230G9i\360\277p\331\334\237VC\351?6\211\230G9i\360\2776\211\230G9i\360\277p\331\334\237VC\351?6\211\230G9i\360\277p\331\334\237VC\351?6\211\230G9i\360\277p\331\334\237VC\351?p\331\334\237VC\351?6\211\230G9i\360\277p\331\334\237VC\351?p\331\334\237VC\351?S\261\272\363G\326\004@p\331\334\237VC\351?6\211\230G9i\360\2776\211\230G9i\360\277p\331\334\237VC\351?6\211\230G9i\360\2776\211\230G9i\360\277p\331\334\237VC\351?p\331\334\237VC\351?6\211\230G9i\360\2776\211\230G9i\360\2776\211\230G9i\360\277p\331\334\237VC\351?6\211\230G9i\360\277p\331\334\237VC\351?p\331\334\237VC\351?p\331\334\237VC\351?p\331\334\237VC\351?6\211\230G9i\360\2776\211\230G9i\360\277p\331\334\237VC\351?p\331\334\237VC\351?p\331\334\237VC\351?p\331\334\237VC\351?6\211\230G9i\360\2776\211\230G9i\360\277p\331\334\237VC\351?p\331\334\237VC\351?p\331\334\237VC\351?p\331\334\237VC\351?6\211\230G9i\360\277p\331\334\237VC\351?6\211\230G9i\360\277p\331\334\237VC\351?p\331\334\237VC\351?6\211\230G9i\360\2776\211\230G9i\360\277p\331\334\237VC\351?6\211\230G9i\360\277p\331\334\237VC\351?6\211\230G9i\360\277p\331\334\237VC\351?p\331\334\237VC\351?p\331\334\237VC\351?6\211\230G9i\360\277p\331\334\237VC\351?p\331\334\237VC\351?6\211\230G9i\360\2776\211\230G9i\360\2776\211\230G9i\360\277p\331\334\237VC\351?6\211\230G9i\360\2776\211\230G9i\360\277p\331\334\237VC\351?6\211\230G9i\360\277p\331\334\237VC\351?6\211\230G9i\360\277p\331\334\237VC\351?p\331\334\237VC\351?6\211\230G9i\360\2776\211\230G9i\360\277p\331\334\237VC\351?p\331\334\237VC\351?6\211\230G9i\360\277p\331\334\237VC\351?p\331\334\237VC\351?6\211\230G9i\360\2776\211\230G9i\360\277p\331\334\237VC\351?6\211\230G9i\360\277p\331\334\237VC\351?6\211\230G9i\360\277p\331\334\237VC\351?p\331\334\237VC\351?p\331\334\237VC\351?p\331\334\237VC\351?p\331\334\237VC\351?p\331\334\237VC\351?6\211\230G9i\360\2776\211\230G9i\360\2776\211\230G9i\360\277p\331\334\237VC\351?p\331\334\237VC\351?6\211\230G9i\360\277p\331\334\237VC\351?6\211\230G9i\360\2776\211\230G9i\360\277\223\277\217\357\016\272\006\3006\211\230G9i\360\2776\211\230G9i\360\277p\331\334\237VC\351?p\331\334\237VC\351?6\211\230G9i\360\277p\331\334\237VC\351?p\331\334\237VC\351?6\211\230G9i\360\277p\331\334\237VC\351?p\331\334\237VC\351?6\211\230G9i\360\277p\331\334\237VC\351?6\211\230G9i\360\277p\331\334\237VC\351?p\331\334\237VC\351?p\331\334\237VC\351?6\211\230G9i\360\277p\331\334\237VC\351?\223\277\217\357\016\272\006\300S\261\272\363G\326\004@p\331\334\237VC\351?p\331\334\237VC\351?p\331\334\237VC\351?p\331\334\237VC\351?6\211\230G9i\360\2776\211\230G9i\360\2776\211\230G9i\360\277p\331\334\237VC\351?p\331\334\237VC\351?p\331\334\237VC\351?6\211\230G9i\360\277p\331\334\237VC\351?p\331\334\237VC\351?6\211\230G9i\360\277p\331\334\237VC\351?6\211\230G9i\360\2776\211\230G9i\360\2776\211\230G9i\360\2776\211\230G9i\360\2776\211\230G9i\360\277p\331\334\237VC\351?6\211\230G9i\360\277p\331\334\237VC\351?p\331\334\237VC\351?6\211\230G9i\360\277p\331\334\237VC\351?p\331\334\237VC\351?6\211\230G9i\360\277p\331\334\237VC\351?6\211\230G9i\360\2776\211\230G9i\360\277p\331\334\237VC\351?6\211\230G9i\360\2776\211\230G9i\360\277p\331\334\237VC\351?6\211\230G9i\360\277p\331\334\237VC\351?S\261\272\363G\326\004@6\211\230G9i\360\2776\211\230G9i\360\2776\211\230G9i\360\277p\331\334\237VC\351?p\331\334\237VC\351?6\211\230G9i\360\277p\331\334\237VC\351?6\211\230G9i\360\2776\211\230G9i\360\277p\331\334\237VC\351?6\211\230G9i\360\277p\331\334\237VC\351?p\331\334\237VC\351?6\211\230G9i\360\2776\211\230G9i\360\2776\211\230G9i\360\2776\211\230G9i\360\277p\331\334\237VC\351?p\331\334\237VC\351?p\331\334\237VC\351?p\331\334\237VC\351?p\331\334\237VC\351?p\331\334\237VC\351?6\211\230G9i\360\277p\331\334\237VC\351?6\211\230G9i\360\2776\211\230G9i\360\2776\211\230G9i\360\277p\331\334\237VC\351?p\331\334\237VC\351?6\211\230G9i\360\277p\331\334\237VC\351?6\211\230G9i\360\277p\331\334\237VC\351?6\211\230G9i\360\277p\331\334\237VC\351?p\331\334\237VC\351?p\331\334\237VC\351?p\331\334\237VC\351?p\331\334\237VC\351?p\331\334\237VC\351?6\211\230G9i\360\2776\211\230G9i\360\277p\331\334\237VC\351?6\211\230G9i\360\2776\211\230G9i\360\277p\331\334\237VC\351?6\211\230G9i\360\277S\261\272\363G\326\004@p\331\334\237VC\351?6\211\230G9i\360\277p\331\334\237VC\351?p\331\334\237VC\351?p\331\334\237VC\351?6\211\230G9i\360\277p\331\334\237VC\351?6\211\230G9i\360\277p\331\334\237VC\351?p\331\334\237VC\351?6\211\230G9i\360\2776\211\230G9i\360\2776\211\230G9i\360\277p\331\334\237VC\351?p\331\334\237VC\351?6\211\230G9i\360\2776\211\230G9i\360\277p\331\334\237VC\351?p\331\334\237VC\351?p\331\334\237VC\351?p\331\334\237VC\351?6\211\230G9i\360\2776\211\230G9i\360\2776\211\230G9i\360\277p\331\334\237VC\351?p\331\334\237VC\351?6\211\230G9i\360\277S\261\272\363G\326\004@p\331\334\237VC\351?p\331\334\237VC\351?6\211\230G9i\360\277p\331\334\237VC\351?6\211\230G9i\360\2776\211\230G9i\360\2776\211\230G9i\360\2776\211\230G9i\360\277p\331\334\237VC\351?p\331\334\237VC\351?6\211\230G9i\360\277p\331\334\237VC\351?6\211\230G9i\360\277p\331\334\237VC\351?6\211\230G9i\360\277p\331\334\237VC\351?6\211\230G9i\360\2776\211\230G9i\360\277p\331\334\237VC\351?6\211\230G9i\360\2776\211\230G9i\360\2776\211\230G9i\360\2776\211\230G9i\360\277S\261\272\363G\326\004@p\331\334\237VC\351?p\331\334\237VC\351?p\331\334\237VC\351?p\331\334\237VC\351?p\331\334\237VC\351?p\331\334\237VC\351?p\331\334\237VC\351?6\211\230G9i\360\2776\211\230G9i\360\277p\331\334\237VC\351?p\331\334\237VC\351?6\211\230G9i\360\2776\211\230G9i\360\2776\211\230G9i\360\2776\211\230G9i\360\2776\211\230G9i\360\277p\331\334\237VC\351?p\331\334\237VC\351?p\331\334\237VC\351?6\211\230G9i\360\277p\331\334\237VC\351?6\211\230G9i\360\277p\331\334\237VC\351?p\331\334\237VC\351?6\211\230G9i\360\2776\211\230G9i\360\277p\331\334\237VC\351?6\211\230G9i\360\277p\331\334\237VC\351?6\211\230G9i\360\277p\331\334\237VC\351?p\331\334\237VC\351?p\331\334\237VC\351?6\211\230G9i\360\277p\331\334\237VC\351?p\331\334\237VC\351?6\211\230G9i\360\277p\331\334\237VC\351?p\331\334\237VC\351?6\211\230G9i\360\277p\331\334\237VC\351?p\331\334\237VC\351?p\331\334\237VC\351?p\331\334\237VC\351?p\331\334\237VC\351?6\211\230G9i\360\2776\211\230G9i\360\2776\211\230G9i\360\2776\211\230G9i\360\2776\211\230G9i\360\277p\331\334\237VC\351?6\211\230G9i\360\277p\331\334\237VC\351?p\331\334\237VC\351?p\331\334\237VC\351?p\331\334\237VC\351?6\211\230G9i\360\277p\331\334\237VC\351?6\211\230G9i\360\2776\211\230G9i\360\277p\331\334\237VC\351?6\211\230G9i\360\277p\331\334\237VC\351?6\211\230G9i\360\2776\211\230G9i\360\277p\331\334\237VC\351?p\331\334\237VC\351?6\211\230G9i\360\277S\261\272\363G\326\004@p\331\334\237VC\351?p\331\334\237VC\351?p\331\334\237VC\351?p\331\334\237VC\351?6\211\230G9i\360\277p\331\334\237VC\351?6\211\230G9i\360\277p\331\334\237VC\351?6\211\230G9i\360\277p\331\334\237VC\351?6\211\230G9i\360\277p\331\334\237VC\351?p\331\334\237VC\351?p\331\334\237VC\351?6\211\230G9i\360\277p\331\334\237VC\351?p\331\334\237VC\351?p\331\334\237VC\351?6\211\230G9i\360\277p\331\334\237VC\351?p\331\334\237VC\351?6\211\230G9i\360\277p\331\334\237VC\351?p\331\334\237VC\351?6\211\230G9i\360\2776\211\230G9i\360\277p\331\334\237VC\351?p\331\334\237VC\351?p\331\334\237VC\351?p\331\334\237VC\351?6\211\230G9i\360\277p\331\334\237VC\351?6\211\230G9i\360\277p\331\334\237VC\351?6\211\230G9i\360\2776\211\230G9i\360\2776\211\230G9i\360\277p\331\334\237VC\351?6\211\230G9i\360\277p\331\334\237VC\351?p\331\334\237VC\351?p\331\334\237VC\351?p\331\334\237VC\351?p\331\334\237VC\351?p\331\334\237VC\351?p\331\334\237VC\351?6\211\230G9i\360\277S\261\272\363G\326\004@p\331\334\237VC\351?6\211\230G9i\360\2776\211\230G9i\360\277p\331\334\237VC\351?6\211\230G9i\360\2776\211\230G9i\360\2776\211\230G9i\360\277p\331\334\237VC\351?p\331\334\237VC\351?p\331\334\237VC\351?p\331\334\237VC\351?6\211\230G9i\360\277p\331\334\237VC\351?6\211\230G9i\360\277S\261\272\363G\326\004@6\211\230G9i\360\277p\331\334\237VC\351?p\331\334\237VC\351?6\211\230G9i\360\2776\211\230G9i\360\277p\331\334\237VC\351?p\331\334\237VC\351?6\211\230G9i\360\2776\211\230G9i\360\277p\331\334\237VC\351?p\331\334\237VC\351?p\331\334\237VC\351?p\331\334\237VC\351?p\331\334\237VC\351?p\331\334\237VC\351?6\211\230G9i\360\2776\211\230G9i\360\277p\331\334\237VC\351?p\331\334\237VC\351?p\331\334\237VC\351?p\331\334\237VC\351?p\331\334\237VC\351?6\211\230G9i\360\277p\331\334\237VC\351?p\331\334\237VC\351?6\211\230G9i\360\2776\211\230G9i\360\2776\211\230G9i\360\2776\211\230G9i\360\277p\331\334\237VC\351?p\331\334\237VC\351?p\331\334\237VC\351?p\331\334\237VC\351?p\331\334\237VC\351?p\331\334\237VC\351?S\261\272\363G\326\004@6\211\230G9i\360\2776\211\230G9i\360\2776\211\230G9i\360\277p\331\334\237VC\351?6\211\230G9i\360\277p\331\334\237VC\351?p\331\334\237VC\351?p\331\334\237VC\351?6\211\230G9i\360\277p\331\334\237VC\351?6\211\230G9i\360\2776\211\230G9i\360\2776\211\230G9i\360\277p\331\334\237VC\351?p\331\334\237VC\351?6\211\230G9i\360\277p\331\334\237VC\351?p\331\334\237VC\351?6\211\230G9i\360\277p\331\334\237VC\351?p\331\334\237VC\351?6\211\230G9i\360\277p\331\334\237VC\351?p\331\334\237VC\351?6\211\230G9i\360\277p\331\334\237VC\351?6\211\230G9i\360\277p\331\334\237VC\351?6\211\230G9i\360\277p\331\334\237VC\351?6\211\230G9i\360\277p\331\334\237VC\351?p\331\334\237VC\351?p\331\334\237VC\351?p\331\334\237VC\351?S\261\272\363G\326\004@p\331\334\237VC\351?p\331\334\237VC\351?p\331\334\237VC\351?p\331\334\237VC\351?p\331\334\237VC\351?p\331\334\237VC\351?p\331\334\237VC\351?p\331\334\237VC\351?p\331\334\237VC\351?6\211\230G9i\360\277p\331\334\237VC\351?p\331\334\237VC\351?p\331\334\237VC\351?6\211\230G9i\360\277p\331\334\237VC\351?6\211\230G9i\360\2776\211\230G9i\360\277p\331\334\237VC\351?6\211\230G9i\360\2776\211\230G9i\360\277p\331\334\237VC\351?6\211\230G9i\360\277p\331\334\237VC\351?p\331\334\237VC\351?p\331\334\237VC\351?p\331\334\237VC\351?p\331\334\237VC\351?6\211\230G9i\360\2776\211\230G9i\360\277p\331\334\237VC\351?p\331\334\237VC\351?6\211\230G9i\360\2776\211\230G9i\360\277p\331\334\237VC\351?p\331\334\237VC\351?p\331\334\237VC\351?6\211\230G9i\360\2776\211\230G9i\360\277p\331\334\237VC\351?p\331\334\237VC\351?6\211\230G9i\360\277p\331\334\237VC\351?p\331\334\237VC\351?6\211\230G9i\360\2776\211\230G9i\360\2776\211\230G9i\360\2776\211\230G9i\360\277p\331\334\237VC\351?p\331\334\237VC\351?6\211\230G9i\360\277p\331\334\237VC\351?p\331\334\237VC\351?p\331\334\237VC\351?6\211\230G9i\360\2776\211\230G9i\360\277p\331\334\237VC\351?p\331\334\237VC\351?p\331\334\237VC\351?6\211\230G9i\360\277p\331\334\237VC\351?p\331\334\237VC\351?p\331\334\237VC\351?6\211\230G9i\360\277p\331\334\237VC\351?\223\277\217\357\016\272\006\300p\331\334\237VC\351?6\211\230G9i\360\2776\211\230G9i\360\2776\211\230G9i\360\277p\331\334\237VC\351?p\331\334\237VC\351?p\331\334\237VC\351?p\331\334\237VC\351?p\331\334\237VC\351?p\331\334\237VC\351?p\331\334\237VC\351?6\211\230G9i\360\277p\331\334\237VC\351?p\331\334\237VC\351?6\211\230G9i\360\277S\261\272\363G\326\004@6\211\230G9i\360\2776\211\230G9i\360\2776\211\230G9i\360\2776\211\230G9i\360\2776\211\230G9i\360\277p\331\334\237VC\351?p\331\334\237VC\351?6\211\230G9i\360\277p\331\334\237VC\351?6\211\230G9i\360\277p\331\334\237VC\351?6\211\230G9i\360\277p\331\334\237VC\351?6\211\230G9i\360\277p\331\334\237VC\351?p\331\334\237VC\351?p\331\334\237VC\351?p\331\334\237VC\351?p\331\334\237VC\351?6\211\230G9i\360\277p\331\334\237VC\351?p\331\334\237VC\351?p\331\334\237VC\351?p\331\334\237VC\351?p\331\334\237VC\351?6\211\230G9i\360\2776\211\230G9i\360\277p\331\334\237VC\351?6\211\230G9i\360\277p\331\334\237VC\351?p\331\334\237VC\351?6\211\230G9i\360\277p\331\334\237VC\351?p\331\334\237VC\351?p\331\334\237VC\351?6\211\230G9i\360\2776\211\230G9i\360\2776\211\230G9i\360\2776\211\230G9i\360\2776\211\230G9i\360\277p\331\334\237VC\351?6\211\230G9i\360\277p\331\334\237VC\351?p\331\334\237VC\351?6\211\230G9i\360\2776\211\230G9i\360\2776\211\230G9i\360\277p\331\334\237VC\351?p\331\334\237VC\351?p\331\334\237VC\351?p\331\334\237VC\351?p\331\334\237VC\351?p\331\334\237VC\351?p\331\334\237VC\351?p\331\334\237VC\351?p\331\334\237VC\351?S\261\272\363G\326\004@p\331\334\237VC\351?6\211\230G9i\360\2776\211\230G9i\360\277p\331\334\237VC\351?6\211\230G9i\360\277p\331\334\237VC\351?6\211\230G9i\360\2776\211\230G9i\360\2776\211\230G9i\360\2776\211\230G9i\360\277p\331\334\237VC\351?p\331\334\237VC\351?p\331\334\237VC\351?6\211\230G9i\360\277p\331\334\237VC\351?p\331\334\237VC\351?6\211\230G9i\360\277p\331\334\237VC\351?p\331\334\237VC\351?p\331\334\237VC\351?p\331\334\237VC\351?6\211\230G9i\360\277p\331\334\237VC\351?6\211\230G9i\360\277p\331\334\237VC\351?6\211\230G9i\360\277p\331\334\237VC\351?6\211\230G9i\360\277p\331\334\237VC\351?p\331\334\237VC\351?6\211\230G9i\360\2776\211\230G9i\360\277p\331\334\237VC\351?p\331\334\237VC\351?6\211\230G9i\360\2776\211\230G9i\360\277p\331\334\237VC\351?p\331\334\237VC\351?6\211\230G9i\360\2776\211\230G9i\360\277p\331\334\237VC\351?p\331\334\237VC\351?p\331\334\237VC\351?6\211\230G9i\360\2776\211\230G9i\360\277p\331\334\237VC\351?6\211\230G9i\360\277p\331\334\237VC\351?6\211\230G9i\360\277p\331\334\237VC\351?p\331\334\237VC\351?p\331\334\237VC\351?p\331\334\237VC\351?S\261\272\363G\326\004@p\331\334\237VC\351?6\211\230G9i\360\2776\211\230G9i\360\2776\211\230G9i\360\277p\331\334\237VC\351?6\211\230G9i\360\2776\211\230G9i\360\2776\211\230G9i\360\277p\331\334\237VC\351?p\331\334\237VC\351?6\211\230G9i\360\277p\331\334\237VC\351?p\331\334\237VC\351?p\331\334\237VC\351?p\331\334\237VC\351?6\211\230G9i\360\277p\331\334\237VC\351?p\331\334\237VC\351?p\331\334\237VC\351?6\211\230G9i\360\2776\211\230G9i\360\277p\331\334\237VC\351?6\211\230G9i\360\277p\331\334\237VC\351?6\211\230G9i\360\277p\331\334\237VC\351?p\331\334\237VC\351?6\211\230G9i\360\2776\211\230G9i\360\2776\211\230G9i\360\2776\211\230G9i\360\2776\211\230G9i\360\2776\211\230G9i\360\2776\211\230G9i\360\2776\211\230G9i\360\2776\211\230G9i\360\277p\331\334\237VC\351?p\331\334\237VC\351?6\211\230G9i\360\277p\331\334\237VC\351?6\211\230G9i\360\2776\211\230G9i\360\277p\331\334\237VC\351?p\331\334\237VC\351?p\331\334\237VC\351?6\211\230G9i\360\277p\331\334\237VC\351?p\331\334\237VC\351?6\211\230G9i\360\2776\211\230G9i\360\277p\331\334\237VC\351?6\211\230G9i\360\277p\331\334\237VC\351?p\331\334\237VC\351?p\331\334\237VC\351?6\211\230G9i\360\2776\211\230G9i\360\277p\331\334\237VC\351?6\211\230G9i\360\2776\211\230G9i\360\2776\211\230G9i\360\2776\211\230G9i\360\2776\211\230G9i\360\277p\331\334\237VC\351?6\211\230G9i\360\277p\331\334\237VC\351?6\211\230G9i\360\2776\211\230G9i\360\2776\211\230G9i\360\277p\331\334\237VC\351?p\331\334\237VC\351?6\211\230G9i\360\2776\211\230G9i\360\277p\331\334\237VC\351?6\211\230G9i\360\277p\331\334\237VC\351?6\211\230G9i\360\277p\331\334\237VC\351?p\331\334\237VC\351?6\211\230G9i\360\2776\211\230G9i\360\2776\211\230G9i\360\2776\211\230G9i\360\2776\211\230G9i\360\2776\211\230G9i\360\277p\331\334\237VC\351?6\211\230G9i\360\2776\211\230G9i\360\277p\331\334\237VC\351?6\211\230G9i\360\2776\211\230G9i\360\277p\331\334\237VC\351?6\211\230G9i\360\277p\331\334\237VC\351?p\331\334\237VC\351?6\211\230G9i\360\2776\211\230G9i\360\2776\211\230G9i\360\2776\211\230G9i\360\2776\211\230G9i\360\2776\211\230G9i\360\2776\211\230G9i\360\2776\211\230G9i\360\277p\331\334\237VC\351?6\211\230G9i\360\2776\211\230G9i\360\2776\211\230G9i\360\277p\331\334\237VC\351?S\261\272\363G\326\004@6\211\230G9i\360\2776\211\230G9i\360\2776\211\230G9i\360\277p\331\334\237VC\351?6\211\230G9i\360\277p\331\334\237VC\351?6\211\230G9i\360\2776\211\230G9i\360\277p\331\334\237VC\351?6\211\230G9i\360\277\223\277\217\357\016\272\006\300p\331\334\237VC\351?p\331\334\237VC\351?p\331\334\237VC\351?p\331\334\237VC\351?6\211\230G9i\360\277p\331\334\237VC\351?p\331\334\237VC\351?6\211\230G9i\360\277p\331\334\237VC\351?p\331\334\237VC\351?p\331\334\237VC\351?6\211\230G9i\360\2776\211\230G9i\360\277p\331\334\237VC\351?p\331\334\237VC\351?6\211\230G9i\360\2776\211\230G9i\360\277S\261\272\363G\326\004@6\211\230G9i\360\277p\331\334\237VC\351?p\331\334\237VC\351?6\211\230G9i\360\277S\261\272\363G\326\004@6\211\230G9i\360\277p\331\334\237VC\351?6\211\230G9i\360\2776\211\230G9i\360\277p\331\334\237VC\351?p\331\334\237VC\351?p\331\334\237VC\351?p\331\334\237VC\351?6\211\230G9i\360\2776\211\230G9i\360\277p\331\334\237VC\351?p\331\334\237VC\351?6\211\230G9i\360\2776\211\230G9i\360\277p\331\334\237VC\351?p\331\334\237VC\351?p\331\334\237VC\351?p\331\334\237VC\351?6\211\230G9i\360\277p\331\334\237VC\351?6\211\230G9i\360\277p\331\334\237VC\351?p\331\334\237VC\351?p\331\334\237VC\351?p\331\334\237VC\351?6\211\230G9i\360\277p\331\334\237VC\351?6\211\230G9i\360\2776\211\230G9i\360\277p\331\334\237VC\351?p\331\334\237VC\351?p\331\334\237VC\351?p\331\334\237VC\351?p\331\334\237VC\351?6\211\230G9i\360\2776\211\230G9i\360\2776\211\230G9i\360\2776\211\230G9i\360\2776\211\230G9i\360\277p\331\334\237VC\351?6\211\230G9i\360\277p\331\334\237VC\351?6\211\230G9i\360\277p\331\334\237VC\351?p\331\334\237VC\351?6\211\230G9i\360\2776\211\230G9i\360\2776\211\230G9i\360\277p\331\334\237VC\351?p\331\334\237VC\351?6\211\230G9i\360\277p\331\334\237VC\351?6\211\230G9i\360\277p\331\334\237VC\351?6\211\230G9i\360\277p\331\334\237VC\351?6\211\230G9i\360\2776\211\230G9i\360\2776\211\230G9i\360\2776\211\230G9i\360\277p\331\334\237VC\351?p\331\334\237VC\351?6\211\230G9i\360\277p\331\334\237VC\351?6\211\230G9i\360\2776\211\230G9i\360\2776\211\230G9i\360\277p\331\334\237VC\351?p\331\334\237VC\351?S\261\272\363G\326\004@6\211\230G9i\360\277S\261\272\363G\326\004@6\211\230G9i\360\277p\331\334\237VC\351?p\331\334\237VC\351?6\211\230G9i\360\2776\211\230G9i\360\277p\331\334\237VC\351?S\261\272\363G\326\004@p\331\334\237VC\351?p\331\334\237VC\351?6\211\230G9i\360\2776\211\230G9i\360\277p\331\334\237VC\351?6\211\230G9i\360\277p\331\334\237VC\351?6\211\230G9i\360\277p\331\334\237VC\351?6\211\230G9i\360\277p\331\334\237VC\351?6\211\230G9i\360\277p\331\334\237VC\351?p\331\334\237VC\351?S\261\272\363G\326\004@6\211\230G9i\360\277p\331\334\237VC\351?S\261\272\363G\326\004@p\331\334\237VC\351?p\331\334\237VC\351?p\331\334\237VC\351?p\331\334\237VC\351?p\331\334\237VC\351?6\211\230G9i\360\277p\331\334\237VC\351?p\331\334\237VC\351?p\331\334\237VC\351?p\331\334\237VC\351?p\331\334\237VC\351?6\211\230G9i\360\2776\211\230G9i\360\277p\331\334\237VC\351?6\211\230G9i\360\2776\211\230G9i\360\277p\331\334\237VC\351?6\211\230G9i\360\277p\331\334\237VC\351?p\331\334\237VC\351?6\211\230G9i\360\277p\331\334\237VC\351?6\211\230G9i\360\277p\331\334\237VC\351?p\331\334\237VC\351?6\211\230G9i\360\277p\331\334\237VC\351?6\211\230G9i\360\2776\211\230G9i\360\2776\211\230G9i\360\277p\331\334\237VC\351?p\331\334\237VC\351?S\261\272\363G\326\004@p\331\334\237VC\351?p\331\334\237VC\351?6\211\230G9i\360\277p\331\334\237VC\351?6\211\230G9i\360\277p\331\334\237VC\351?p\331\334\237VC\351?6\211\230G9i\360\2776\211\230G9i\360\277"
      }
    }
  }
}
node {
  name: "tensors/component_2"
  op: "Const"
  device: "/device:CPU:0"
  attr {
    key: "_output_shapes"
    value {
      list {
        shape {
          dim {
            size: 1168
          }
        }
      }
    }
  }
  attr {
    key: "dtype"
    value {
      type: DT_DOUBLE
    }
  }
  attr {
    key: "value"
    value {
      tensor {
        dtype: DT_DOUBLE
        tensor_shape {
          dim {
            size: 1168
          }
        }
        tensor_content: "j\353\203\236\301\221\354\277\356\270\260\275\357\030\002@\220\307\020-\005+\357\277\306\374\220\364YM\324?K\227\034\251\212+\315?j\221\353\2562\203\374\277u\272\305\303\326\375\354?t9\006\213\222\345\272\277j\221\353\2562\203\374\277\334\272-\341\362\321\315\277\022\240\323\233\355\366\257\277\304\276\212\242$\226\364\277\272\207\347\276\323\357\363\277( \275\2651S\254?*N{\3071\256\327?\321\232+z\323;\360\277c\230N\035\027\224\333?\222\346\201&\022H\350\277\234\\q\031\220\032\360\277\300\274/\220\267\342\255\277\315a\330\274w.\343?\332\002v\375\277_\305?\335\310\322P\204\200\260\277\215\372CG\220\222\362\277\031C\343)\362\361\303\277\325\000\335^\004\017\344\277l\276%w\354\313\325\277IZ\\\024M\351\364\277\250\320\324\221\036\003\311?\356\323j\356\303<\324\277V\220\225\333\212\235\340\277\000t\236\022\371{\361?;\264\020X\237<\010@\271\001[\304\202\r\362\277\367.2`\373\251\320?]\250\307\305\316&\350\277F\247\225QB\276\351?\303\221P\332jM\353?\311\037j\254\324p\000@ZB\026\341\235S\364\2777\314:7\213\215\345\277QWB\036/\220\363?\323 \270t$\036\362\277\3125\344\261\265Z\361?\333\321\316]$\342\360\277\200jr\220\303\317\366?\314o\241\213$Z\363\277\021S\317;\220\364\361\277\366\243\0260\354\232\371?\350\275\267u\010\344\240?\333\321\316]$\342\360\277\240\252\3757I\313\276?\343}V\021fy\332\277\026\033\312F\204\224\006@\035SE\227Zn\365\277J\377}g\306e\335?\345\372\250r\310\\\341?f\337j\251\037\315\350\277U\367\260\334\316b\351\277\264\031\027S\374\034\366\277\017\240v\311\367\n\000\300\365J\304\375T\001\341\277\243\344G\250\321Z\377?L\377\2630\337\035m\277\000\032\006#jm\341?\316A\375\246W\037\365?\361\014\342\n;\307\356\2772\223\347y/\200\370?\225\253Z0\220V\361\277\314G4\205w\333\271\277( \275\2651S\254?\226\213\177\032pG\343\277\216=\212\304\270\203\363\277QR\263\350pc\356\277|\305t\234e\320\373?\225\246\313\372\321)\334\277\360x\214A=\271\374?I\rG6s\221\375?\351\364\257 \367=\347\277\244t\243\003\324\243\367\277ha\3755u\352\360\277{\323=k\022\374\353\277\333\321\316]$\342\360\277%\004\\\200Z2\364\277\364S\376\226C\000\314\277\315\277\271$\315\364\300?\347\347Pn]\004\354?\361#\301\023\273t\274\277\035SE\227Zn\365\277t9\006\213\222\345\272\277\375\343\265 \335\242\272?K\227\034\251\212+\315?\306D\027\235ux\366\277\273\000\203W\375\331\003@,!\035\240\\\350\340?f\223\233\210=\352\330\277\3352\263\200H\353\264?\306\034\252\226\310\371\274\277u\2325ClE\224\277j\232tR\354t\373?RIyO\202d\323?,!\035\240\\\350\340?\255\264\317\212\336;\367?\315\365-\206u<\365\277\257\306nhk\257\303\277i\256\001\226\322\354\256\277\305\005\313\215HL\357\277\363\360Om\341o\336?\300\262q\255\202\321\360\277\303\204\315\310\265\226\362?\232=\000 \203\375\366\277QR\263\350pc\356\277QR\263\350pc\356\277\241n\311\326|\323\205?-\247\251\232\255\312\342?e\377E\277?\334\366\277\336\232\241\325\235\265\363\277\336\335\347R\306\246\364\277\021i\333\360\376\234\351?\007\3674vG\202\317?\320\276\000\376\356\017\370\277\035SE\227Zn\365\277\000\337\002\214\003\371\307?w\3316\275\343\032\346?\372~\210\205\362\341\310\277\032\212r\037\341\232\362\277\3435\320hJN\370?\032\212r\037\341\232\362\2773\'=C-\216\352\277\306\374\220\364YM\324?\211\037\322\361\211K\303?\021\\X\337I\346\360?Pw\0354O\237\341?\374\021\347\233\303m\367?\031\327\031\255H\261\000\300\371\033\332[\220Q\333?\24786PZ=\331?r\333\346\226\356\201\362\277\263\216J-\270\000\323?;\264\020X\237<\010@d\362T]\030\344\004@\367v\270\010\027\325\362\277\340\202\t\246?#\335?\376FdJ?3\330?\251`\341\342UY\355\277k*\320\255\356\275\363\277\022\237\236\\r\327\361?\203\277W\353x4\304\277C/\322%\236\007\370\277IZ\\\024M\351\364\277\315O\306u\004K\345\277\303\314Sq\321\301\324\277\350\270\365\217\n\\\000@\322M\026\234\371\343\370?{\323=k\022\374\353\277\251\013\330(\205w\342?\266\325f\271\3009\340\277)=\257=\266?\321\2776\226w\313\027S\375\277\211\257\336B\301\241\347\2774\300!B\351\310\341\277\251`\341\342UY\355\277\n\235x\'\235\366\321?:\241[\201>\370\242?\021\360\255\250G\364\342\277}\004\301\253\222\374\342?\013>Q\002P\273\354?\260CSy[Q\001@\317\261\017\234\307\027\006@\002\244\214\213\266\024\375?k\203\"\340\205W\354?ZB\026\341\235S\364\277.\265\'\324\244\237\235?\200\371\372\227\264\023\271?\351\320lLi(\006@\006\n\215z\262\332\304?z/\240a\337\221\245\277\303\335\037\373L0\333?F\342\230\350\2502\323\277\315\277\271$\315\364\300?\371\367\265\315\251\212\337\277\347\325>\'\352 \356\277\236\342\375\023\341\374\361\277\204\254\377\346\r\334\316\277\026\373\200\340\361C\357?P*\010VuG\332?\365\017\301f\356\214\327?\322\323\355+\000\035\220\277\235\360\306\342\215(\322\277\355\000\311\025\231\002\353\277<\253\365\004X\214\322\277\345O\262,\231>\354\277\016\205m\216X\364\331\277;\330S,-R\351\277y\001\342O\3376\332\277\007%\265\373\370?\360?\332+gM\263\360\340\2771U\341\'\372\310\330\277S6!K\027\014\336?\314\003\367T\"h\325\277\327<\031\252\373>\252?\340\370\017\324\014\014\300\277\227\305<\364\336F\325\277#\367j\0363:\002@\013yT\231\266/\326\277ENC\037\253$\361\277\246\337\343\035\303\243\360?\353z<\033H \351\277\355p\274\304a\254\306?\325\246Dou\000\364\277\266\353rn/\342\367?\324\033)?f\361\334\277\"\330gu\230^\342\277\003\245_\337\307\031\263\277\246\'j\306\336\316\322\277\313\261\024\265;F\276? [\025\0246{\313\277\211\257\336B\301\241\347\277\356\323j\356\303<\324\277J\377}g\306e\335?\272\207\347\276\323\357\363\277\275\241\311\202\"\340\327\277?\3332\210\340\027\322?\342C\2317\367y\350\277)\201\354m\013\263\265\277,\017\013Y\351\004\343\2771\241\260H\334\253\350\277\344\010rAu\210\361\277#6I\335\355$\320?\002\216\200\326Gl\345\277\335W[Xu\304\362\277\001\341\223@\224\021\214\277IZ\\\024M\351\364\277\270[\363\263\021\034\342\277j\375\225\3454u\352?\235E\320\234^\n\315\277\346\350\226+Uy\343\277qUZ\234\235\237\360\277\324l\207\225\006\001\362?\272D\241A\253\376\362\277\300\031\215\256\306\226\371\277)\211\020\016&\341\007@]m\304.h\262\336?\216H\020\037\360W\007@^@f\007\223\354\347?\370\n\016\322\024\343\324\277\031C\343)\362\361\303\277B\211j\025-\026\350\277>\344l!\317\026\355\277\254h\000j\374X\367\277n\242\223\331\222t\345?/\254v\\\272\224\262\277\354\214\351\306\307\337v\277\301\\\323+\357\207\372\277\372\334i\355G\250\346\277O\314&\356\037\201\354\277=\367\304%:o\342\277M\372\312\322\354\273\332\277>T`\320\227\300\310?H \237:\336\351\362?m\t\257\332\3269\356?\346\350\226+Uy\343\277\272\207\347\276\323\357\363\277\240 \004f\026\264\321?\241\r\254a\253[\334?G-\"L\223\240\353?\013yT\231\266/\326\277\035SE\227Zn\365\277yI\267\002\306T\360\277\203\277W\353x4\304\277\216F\023hru\362?\013yT\231\266/\326\2778\313\364y\223\030\356?\332\222\202N\367\265\351\277=\367\304%:o\342\277!\370B\213\270m\360\277\033\354M\3651&\332?\245f\3324\'x\347?Z\263\215\331\254\017\262\277(\353\314\235\317\035\272?\000\032\006#jm\341?j\221\353\2562\203\374\277\0135\027ia\274\301?\004\272t\341\t@\367\277\371\033\332[\220Q\333?)L\374U\251}\243\277\243\340M:\326\225\345?\342C\2317\367y\350\277\335g\243\230\252 \247?t9\006\213\222\345\272\277q5\344!q\264r?IZ\\\024M\351\364\277\320\017\020J\304,\331\277\371\306\320\241\277o\300?\317{\272\200\306\036\367\277,!\035\240\\\350\340?_\2145(u\317\327?\272\207\347\276\323\357\363\277\321\334\236\243\352\'\273?\177x;_p\373\346\277\324\242\373\366\256H\306\277\030a}Z\330m\230\277>\340r\263\323Q\363\277\214\273\3677cf\353\277j[wM\212;\310?\306\235i\317\014\022\357?vA\230{\037U\346\277\365`\320\262\303\251\370?\213\344[\361<g\370?\3168t\003\236-\366\277,\261)\361\223>\305\277\023\324\033\013\356\234\322?\254h\000j\374X\367\277>\026\310\316\324J\002@\0135\027ia\274\301?u\004\026s0\260\250\277\272\341\177\256b\376\343\277\213\316O<\316\276\340\277\021i\333\360\376\234\351?QR\263\350pc\356\277_\032L)(\351\207\277\323zPd\263,\342\277Z=\207\253\337&\337\277IZ\\\024M\351\364\277VU\222D$)\327?K\227\034\251\212+\315?\230\267s%2\033\365\277\2028\20530\335\332\277\354\214\351\306\307\337v\277IZ\\\024M\351\364\277=\367\304%:o\342\277\201K\3357\2335\320\277\306D\027\235ux\366\277\227\305<\364\336F\325\277F7\242\242y\024\316\277\272H\233\257\246\303\354\277\213\316O<\316\276\340\277\306\034\252\226\310\371\274\277\203\204TT\022\300\352\277W\270@n\206\271\304\277\207\2073\260\305\205\323?IZ\\\024M\351\364\277\303\221P\332jM\353?z\003a\301gg\256?\005\254\253\022]\024\347?z\225\206#\2507\360?\251\013\330(\205w\342?\344\010rAu\210\361\277\303\261\231@\375\235\002@N\205\346\002\374\312\361\277\246\236\232W\030\225\004@:\234\231\233@p\002@\n\235x\'\235\366\321?!\363\263U\372@\333\277\376FdJ?3\330?i\244C\263\235\333\361\277\311\246\316\023\253\206\360\277d\300\371\257\022\260\357\277\331j\327\273\373\231\325?\371\005\316\246!\251\363?+{\265\217\353\366\360?\367\320P\370\245\343\342\277\340l\375\360\320z\365?\254\027\361\035\'<\346?\211\257\336B\301\241\347\2772\032y\365\2370\177\277\331F\263-\025\323\331\277\266\325f\271\3009\340\277\324\242\373\366\256H\306\277\211\352\341\331\'\026\301\277\272\341\177\256b\376\343\277\306\374\220\364YM\324?F\342\230\350\2502\323\277&\206\237\002\345\\\310\277\001B\261\265e\211\325\277;\330S,-R\351\277\000\036\000\221e2\373?\r]\302\373\\\330\345?ha\3755u\352\360\277&\273\217\032G\222\312?,v&Z-\312\353\277 \220\005,\230\260\315?\267\302sPI\005{?\264\266\365\277\263\034\347\277(\353\314\235\317\035\272?\377\200!$\2562\352?y\001\342O\3376\332\277\305\nZ\303\006y\364?\306\367\001\277\233 \377?J\377}g\306e\335?\025\374\306\235\351\270\346\277{~4\261A\032\341?i\244C\263\235\333\361\277dk\360\365A\316\344?\216\237e\232\t\017\333?\212<\367)N\223\003@\322.\201C\321I\322\277/-6\225\376\254\344?\272\341\177\256b\376\343\277\266\211\227\230\336V\320\277t9\006\213\222\345\272\277\327\337\273\213\354\212\376?~\361h\247\'\244\355?\355\000\311\025\231\002\353\277\300s%\236U\245\351\277IZ\\\024M\351\364\277\347\2005m\031?\343?#6I\335\355$\320?\271z\366\\\254\367\001@\320\017\020J\304,\331\277>\366~hB\372\352?u\004\026s0\260\250\277_\324\273\320\220\372\371\277\357\3446x?\253\332?%\377\314J\234\005\337\277$\r\345#\024$\363?IZ\\\024M\351\364\277\'\326\267\233\215\367\365?\364\210\356\256\2455\316?QR\263\350pc\356\277\356H\236\310\177 \361?\273\'\305qD\226\234\277\320\017\020J\304,\331\277(/\n\316$\221\336?\263\337Yy\215\035\364?\216\237e\232\t\017\333?\260^\r\252/u\323\277\203\277W\353x4\304\277\215T\3346\037\241\342\277}^Y\233!\013\363?IZ\\\024M\351\364\277\370\275\370\363:\213\355\277r\372{\357\026\034\331?\251`\341\342UY\355\277\220`\365+\301e\346\277\373:KU\235n\324?$^\364o\351@\344\277;\264\020X\237<\010@\201\\\251\301\026\244\326?\000o\017\335:O\354\277\010:\312\375:f\264?`\306\362\001\344\316\351?&Bb\322\217\351\323?YP\337\257J\177\324\277\'|\037\254\376\350\345?j[wM\212;\310?u\2325ClE\224\277\273\3409\361j\211\354?NF\232\363\316\236\352\277\336\236\233C\231z\355\277\367v\270\010\027\325\362\277\220r\007s4I\344?;\264\020X\237<\010@>\217cg\3764\342?/\202?O\317\216\357\277\034\310)gK_\336\277_\243\365\352M.\000@\014t\024n\303\365\364?\270\n\344g<\377\360?\372\356{4\273\213\344?\321\232+z\323;\360\277\031\256G\243\374n\372\277\013\212 #2\236\334?\006\n\215z\262\332\304?F7\242\242y\024\316\277;\264\020X\237<\010@\003\215:\031P\367\355?2\032y\365\2370\177\277\261K\265\245\304\034\336\277}\004\301\253\222\374\342?\306D\027\235ux\366\277QR\263\350pc\356\277,\265riZ\366\362\277\361K.\032h\363\365\277hw\t\353\343\222\350?\306\220\346\275W[\366?lq\020\231\022t\356\277\273\202X\211\025\303\336\277\322.\201C\321I\322\277\357\316*\303\320\002\363?IZ\\\024M\351\364\277JP\215\263\233\202\376?\336\236\233C\231z\355\277\006\232\231\313\3510\351\277\243\245J\243o!\314?\345O\262,\231>\354\277\204\254\377\346\r\334\316\277\360\010\350\234?\002\365\277x\307$vp7\350\277\305zl\270vq\005@\243\245J\243o!\314?\234X(\241\311b\302\277qs\2517\316\304\317?}\004\301\253\222\374\342?1\263\302\217O\217\346?\016\251\221\034?\273\325?\370\302\207)\371\267\362?\365\261\337\376\230\306\351\277\310\r\352\024\357K\371\2771\021\244\367\244U\304?\277\337\317\324W\227\367?\230\267s%2\033\365\277d\274\377A\027\353\365\277>\230\235\000\3553\335\277\240 \004f\026\264\321?\201K\3357\2335\320\277\346\227\207\337\177\\\362?fs\202\346\316=\260?.\026W\214~\377\266?\237%D\221\t\356\362\277&\206\237\002\345\\\310\277:\241[\201>\370\242?\272\246|\027\374\211\332?\303\335\037\373L0\333?\233\342!s\374y\337?7\314:7\213\215\345\277\227\2129]x\322\353?\230\267s%2\033\365\277\324y\n\247\273\267\352?\214f\356}\222\204\340?\013\212 #2\236\334?\310\201\3271\263\272\316?\030a}Z\330m\230\277\037\331\321\221\253P\367\277}k\334\254\326\301\353?~\361h\247\'\244\355?0y\005\266\340\217\324?\203\200Z\346\026\373\360\277\260^\r\252/u\323\277\035SE\227Zn\365\277\036\254\227\311\361\007\356?\000t\236\022\371{\361?:\352es\2405\347?\220\314\237b\303W\364?\216s\337\337\271|\002@\376\201g\341\245\247\341\277P\013s\375L\255\363\277\314o\241\213$Z\363\277\035\013\277\356>C\323?\266\211\227\230\336V\320\277\246\337\343\035\303\243\360?\023\335U\244\334\233\355\277R5jQ\221\236\000@\341U\253~j]\346?\361\003\250qL\310\323?\033\354M\3651&\332?\314o\241\213$Z\363\277\301\244\250\336\325\245\340?\007\302D^\345L\315\277QR\263\350pc\356\277\360x\214A=\271\374?\311\252\310\201\246K\352\277\250ep\030\024\206\362?\362\216t\227\220\344\366\277\264\266\365\277\263\034\347\277\207)RHp\277\345\277\355\000\311\025\231\002\353\277\324\022\357\245w\362\341?\356\230gW]\310\352?\004r\3568\356\024\325?X\026\"\326\333\177\342\277\230#\036\\4\r\343?\035\013\277\356>C\323?\303\335\037\373L0\333?\026F\231\007N\271\001@\240 \004f\026\264\321?\341\026_o=1\377?\334e$\'\"\360\322\277u\004\026s0\260\250\277\272\341\177\256b\376\343\277YP\337\257J\177\324\277\264\266\365\277\263\034\347\277\027\3404\000\220a\326?]\343\312\\5\233\301\277F.h\t\213\025\343\277\300\274/\220\267\342\255\277\230#\036\\4\r\343?\273\'\305qD\226\234\277,%\027\016X\255\372?\006\n\215z\262\332\304?Y\234\256\320,b\344\277\273\'\305qD\226\234\277;\264\020X\237<\010@\261PD\333\202I\363\277\001f\325CLP\321?\315\277\271$\315\364\300?/\254v\\\272\224\262\277\233\342!s\374y\337?,!\035\240\\\350\340?$^\364o\351@\344\277f\337j\251\037\315\350\277\305\001\321\037M\207\365\277\351m\335h\256\346\355?\215T\3346\037\241\342\277\235\360\306\342\215(\322\277ha\3755u\352\360\277\211\352\341\331\'\026\301\277\247s9\347\300\261\342\277\322\323\355+\000\035\220\277\362\376\030<\216\233\376?\330\273\346\007\321\266\366?\346\350\226+Uy\343\277\370h\3579j\251\342?]\343\312\\5\233\301\277|l\"j\3166\343\277\365\261\337\376\230\306\351\277\027\314%\002\237\233\003@7\2217\240$\031\334?\351\250\340\377\024[\327\277\023\335U\244\334\233\355\277\274}\030^\"\211\375?\356?\025%\306.\362\277\031P\265Er\233\360?\206\214s\333\270\277\364\277\327\007)\222\231\t\270?lv\237\316\320\240\363?Q\215\266\177\327\327\307\277\030x\323AT\'\306?\353\307Q\371!x\320\277#6I\335\355$\320?\236\342\375\023\341\374\361\277#\327!\270\240\351\352?ENC\037\253$\361\277\tQ\251\006\273\023\342?\376FdJ?3\330?\257\312\267\3401g\361\277\234X(\241\311b\302\277\300\"\026R\200\210\370?l\317\361\000h:\334?\376\201g\341\245\247\341\277QR\263\350pc\356\277\021\265\252\021\341\177\331?\177\230\313\337\332\263\237?)L\374U\251}\243\277H\234\317=d\325\277?|l\"j\3166\343\277\315\277\271$\315\364\300?t\315\035\310AV\342?\0135\027ia\274\301?\013\212 #2\236\334?\000\337\002\214\003\371\307?#\327!\270\240\351\352?\224\312\357\210\270\360\327?\035\013\277\356>C\323?\227x\'\026\005\357\355\277.qT\177\254\321\003@\226-\236\262\032\201\305\277\271\001[\304\202\r\362\277\300\262q\255\202\321\360\277\333\321\316]$\342\360\277\251`\341\342UY\355\277\307\3518\360\356\364\336?\371\033\332[\220Q\333?\322r\276s&\275\266\277\361\003\250qL\310\323?\006_\2264\203\274\337?a)\202\345\236\020\002@;\264\020X\237<\010@n6\351\242\220\202\367\277\006\232\231\313\3510\351\277\266\211\227\230\336V\320\277\303!]+\242\243\317\277b\306`RV\020\003\300\272\341\177\256b\376\343\277&\206\237\002\345\\\310\277]\030\273t\227\320\303?\226D\364\231\226:\223?\266\325f\271\3009\340\277P\013s\375L\255\363\277\025\374\306\235\351\270\346\277\031G,\242\270\251\361\277Q\276]\037sU\374?i\376\333\242,\352\341\277IZ\\\024M\351\364\277\\!\365\r\206\317\356?Y\025\334\030\344\n\353?\303\204\315\310\265\226\362??\3332\210\340\027\322?\r\"\277d\366c\314?l\276%w\354\313\325\277\001\007\256\036\377\024\354?1\263\302\217O\217\346??#\2710\374B\364\277\310\201\3271\263\272\316?\tZ\343\237\251\022\335\277\246F\377\036\007i\371?\306D\027\235ux\366\277\232F\211\303<\357\365?\245f\3324\'x\347?\n\235x\'\235\366\321?\r]\302\373\\\330\345?\371\306\320\241\277o\300?\335\243*yW\247\362?\372U\2275\377P\355?\001aF\016\216#\374?\372H\024$J\232\364?\272\341\177\256b\376\343\277fX\230\361\326u\357?\344x\026\346r?\371?\372\356{4\273\213\344?\254\027\361\035\'<\346?O\031<\314\371\330\323\277\232\365ywg\322\324?wiC\016\033q\312\277\235\265\303K\'\264\350?\323zPd\263,\342\277a\253\246!\202\354\320?N\205\346\002\374\312\361\277\323?M\315L\270\330?\357\206U\020\352\344\354\277\376\201g\341\245\247\341\277( \275\2651S\254?j\221\353\2562\203\374\277\355\000\311\025\231\002\353\277I\022\326k1\276\322?\211\257\336B\301\241\347\277\370h\3579j\251\342?\016eT\354\351G\261?\202\311)\247]\370X\277\363fV\233\256X\301\277\300\274/\220\267\342\255\277ha\3755u\352\360\277=\004H7\357%\373\277\221R,]\024:\366?:Q\201t\344\372\357?\201\376\307Y\301\335\350\277\234\035%\nc\356\350\277\210\301\360\2114\205\345?\024hq\324\353\252\364?\030t\212\311\215o\370?\327\205#\234]|\356?\305\001\321\037M\207\365\277\tQ\251\006\273\023\342?\362\357\230s[\002\001@=\274\301\216\323\372\330?9\260\250\23116\325?\364\376\364\334r\036\321\277\365\017\301f\356\214\327?+\250\201\0073\376\000@Q\215\266\177\327\327\307\277\306D\027\235ux\366\2773tR!\007\346\321\277\211\352\341\331\'\026\301\277\324\033)?f\361\334\277\206\272\244V\237\212\261\277\312\362\2354\215i\360?N\307Y,\023\267\274?\221\276\326\223\026,\324?\216\332h1p\203\344\277\313\333K\302&L\341?I\263\256F\344\202\355?M\372\312\322\354\273\332\277;\330S,-R\351\277\366\342b?\031\307\340?;q8+\351\214\340\277he\367\243p\257\352\277a\264\340\272p\353\353\277cCEcF\262\300?\350\275\267u\010\344\240?\271M*\345d\360\361?\227\305<\364\336F\325\277[4M\022\361\'\344?u\250\263|c\032\357\277\220g\201\030\375t\000@\322\323\355+\000\035\220\277]W\270y\371\t\367?3tR!\007\346\321\277\231\262\344\357s\356\337\277<p\362m\361\027\351?\376FdJ?3\330?IZ\\\024M\351\364\277\033\354M\3651&\332?\036\370f\352\323\352\335?\306\330lfs\206\330\277;\264\020X\237<\010@O\031<\314\371\330\323\277y\001\342O\3376\332\277C/\322%\236\007\370\277{\323=k\022\374\353\277}\362\256d\037\031\345\277t9\006\213\222\345\272\2773\326-\367Wq\371?\035SE\227Zn\365\277\323\323\242\226J\306\372?\303\314Sq\321\301\324\27768\345m\215\177\363?@\267\016\372\371P\326\277;\264\020X\237<\010@\227\305<\364\336F\325\277}k\334\254\326\301\353?\327\235Hb\325\236\263\277\264\"\240\366\265\016\365?\013\212 #2\236\334?,!\035\240\\\350\340?}Y\312ec\336\355\277\013\212 #2\236\334?-h]\213\200\236\373?Tq$\342}\200\347\277j[wM\212;\310?\356\230gW]\310\352?\246\'j\306\336\316\322\277\0363j\201:_\347\277\366\353\234\330\007\306\333\277\300\014\n\235\021\340\340\277\023\030Y;C\020\307\277]\343\312\\5\233\301\277\363+S\004H\344\347\277H \237:\336\351\362?\313\'\033\343\010/\321?\342\241z\237L@\326?\334\261\363G\004\323\342\277\276\355\230\243\004\303\347\277\017\321<\257:\327\351\277vA\230{\037U\346\277\216\332h1p\203\344\277\324\242\373\366\256H\306\277\272\207\347\276\323\357\363\277Z\233h\0235\355\354?\251\013\330(\205w\342?,\265riZ\366\362\277\027(\273\250\253\214\370\277\211t\333\253Z-\336?\030x\323AT\'\306?-\236\321\354(\346\317\277\304\271\373lfi\337\2774o\022\366\023\254\360?\2523\203\273\200\223\326\277V\220\225\333\212\235\340\277q\316\3654\307\211\000@u\024^\263e\014\375?\334e$\'\"\360\322\277;\264\020X\237<\010@\311\037j\254\324p\000@#~\317\205\tP\362\277\314o\241\213$Z\363\277\003\017@\017\214\204\267?\356?\025%\306.\362\277\341U\253~j]\346?\236<\226\003p\013\342\277,v&Z-\312\353\277\213\316O<\316\276\340\277\2207\004\334\315\324\312?\360\036\364Q\256\252\354?h\262\014\202J\007\322\277\306\347\271~f\304\252\277}Y\312ec\336\355\277\311\367\335_\200\243\321\277\214o(\027\201\203\333\277\300\262q\255\202\321\360\277)L\374U\251}\243\277\210\033\211y\303\223\365?\304\271\373lfi\337\277\334\261\363G\004\323\342\277\3028\376\247\323\263\362\277\'\036>D\251\"\330\277\302\360w\377\267\210\320?i\256\001\226\322\354\256\277c\323Q\264}\010\345\277P*\010VuG\332?\314o\241\213$Z\363\277%P+\241<\025\364?q>\271\037l\217\315\277\312\351\024\221\323w\361\277\361\014\342\n;\307\356\277c\230N\035\027\224\333?Y\245\350i\033a\317\277\345\234\307\ns\226\323\277.6p.\355\253\337\277u\004\026s0\260\250\277\021\002\300\357\272\327\340?n\363\242%h\221\366\277\375\010^\370\t|\370\277\261Y\315~<;\362?VP\251\3461\307d?o\331\213\204\201\316\253\277N\205\346\002\374\312\361\277QR\263\350pc\356\277QR\263\350pc\356\277\262B{\014\326\035\343?\237[\231\254\n\347\001@)\201\354m\013\263\265\277I\022\326k1\276\322?$\r\345#\024$\363?^\005cp,x\316?\376\227s\226\024P\371?\036\314\340/\204X\005@j\360\022\324\177\276\361?@\267\016\372\371P\326\277\272\207\347\276\323\357\363\277.Z\224\274\323r\333?\263\337Yy\215\035\364?p\257\362\213,\256\340\277\314o\241\213$Z\363\277\344\010rAu\210\361\277\177\212M\246\343\336\344?7<.\346S7\301?\300\031\215\256\306\226\371\277\'\343:\255B\256\356?\266\023\221j\021n\315?\324\327\353\016\021~\310?\243\245J\243o!\314?\000\337\002\214\003\371\307?Hc\345\267\006\333\363?\033\354M\3651&\332?QWB\036/\220\363?\363\321\272\024\271\325\367\277\317{\272\200\306\036\367\277\261o\3313\253\343\331?v\360\210/J8\365?\216\237e\232\t\017\333?\334e$\'\"\360\322\277\023\210L\352\013\272\342?I\022\326k1\276\322?\306\347\271~f\304\252\277\364\255\345\220\235\001\360\277\340-\000\354nA\302?\214\273\3677cf\353\277\334\261\363G\004\323\342\277~\230\026u\220\n\365\277\363+S\004H\344\347\277_\032L)(\351\207\277[\";\313}D\346\277\024u\364\345\240a\355?\270\n\344g<\377\360?F7\242\242y\024\316\277\016eT\354\351G\261?\036\347\232`X|\327\277\275\241\311\202\"\340\327\277.\026W\214~\377\266?\316n\311\036\237&\005@;\264\020X\237<\010@\351\250\340\377\024[\327\277\003\330R@\254l\000@\226D\364\231\226:\223?\216A\2042\264H\355\277u\255B\262!G\364?\007\3674vG\202\317?\371V\335\362\366\305\344\277\322r\276s&\275\266\277\021\360\255\250G\364\342\277\215\262\275\236tg\320?,\265riZ\366\362\277>\344l!\317\026\355\277\3352\263\200H\353\264?\257\235\353h\352_\001\300\332\365\243\341?\266\370\277\325\246Dou\000\364\277\304\030#\222\263\244\344\277q>\271\037l\217\315\277\024u\364\345\240a\355?\035SE\227Zn\365\277\241\374\337\327/\355\325\277n6\351\242\220\202\367\277\356?\025%\306.\362\277\002\216\200\326Gl\345\277w@R\276\'\340\356?\013\212 #2\236\334?xm\214\206\341(\370\277\333\321\316]$\342\360\277=\367\304%:o\342\277ha\3755u\352\360\277\260#\n\023\311\000\352?\211\257\336B\301\241\347\277&K\234k~\350\356\277\271M*\345d\360\361?\245T\310\355\263\224\351\2777\2217\240$\031\334?\334\261\363G\004\323\342\277\372?\213\200\220\250\365\277W}=\327\037E\353\277IZ\\\024M\351\364\277/-6\225\376\254\344?\365\261\337\376\230\306\351\277\314o\241\213$Z\363\277\235\017\\;\266\302\370?\272D\241A\253\376\362\277\346\216\376;\306j\363\277QR\263\350pc\356\277^{i\236\371`\321\277c\202Bh\250\353\363?\372U\2275\377P\355?fs\202\346\316=\260?Z=\207\253\337&\337\277N\205\346\002\374\312\361\277he\367\243p\257\352\277,!\035\240\\\350\340?\232\365ywg\322\324?F7\242\242y\024\316\277\372~\210\205\362\341\310\277qs\2517\316\304\317?z\346\225o}T\341\277C/\322%\236\007\370\277\313\'\033\343\010/\321?\023\030Y;C\020\307\277\272\341\177\256b\376\343\277\300\274/\220\267\342\255\277&\206\237\002\345\\\310\277\227\305<\364\336F\325\2774\031tt\200b\372?9\370.BMa\367\277\363fV\233\256X\301\277IZ\\\024M\351\364\277IZ\\\024M\351\364\277\000\032\006#jm\341?\251`\341\342UY\355\2776\354\025M\253\234\363\277i\256\001\226\322\354\256\277\023MIS\245E\311?t\315\035\310AV\342?\212G}\204\205g\347?\334\261\363G\004\323\342\277\370\302\207)\371\267\362?t9\006\213\222\345\272\277\354\023!\032\004[\340\277VP\251\3461\307d?4\031tt\200b\372?|H\337\225@!\002@)=\257=\266?\321\277\235\243\261\004\264\320\352\277\373\316\240\036\233|\366?\273\'\305qD\226\234\277-I\3102X\004\325\277\300\262q\255\202\321\360\277-h]\213\200\236\373?d\274\377A\027\353\365\277\232\360\352A\251\245\377?\262\234\023\374d,\363?\370\271\376\205?\306\363\277iW.\325\303\203\372?\272\207\347\276\323\357\363\277\241\270\242\247\332y\301?\035SE\227Zn\365\277*N{\3071\256\327?\262\301\273\323\221\005\261\277\334e$\'\"\360\322\277t9\006\213\222\345\272\277\221\271G^X\377\376?\023\210L\352\013\272\342?/\254v\\\272\224\262\277\250\320\324\221\036\003\311?\tQ\251\006\273\023\342?&Bb\322\217\351\323?j\221\353\2562\203\374\277\246\337\343\035\303\243\360?\373:KU\235n\324?9d\331xOS\345?\346A\351]\354\022\374?\2028\20530\335\332\277\224\005\363\037\037e\341\277*\211~^\230\"\341\277\370h\3579j\251\342?&\344\200j:#\346\277\340-\000\354nA\302?\260#\n\023\311\000\352?\357\037:\017\246\037\344\277\275f\306\353\273k\356?\351\250\340\377\024[\327\277Z=\207\253\337&\337\277\213\316O<\316\276\340\277\306\374\220\364YM\324?Q\215\266\177\327\327\307\2773\326-\367Wq\371?P*\010VuG\332?$kw\201\236\367\374\277H\033\020\005 \275\355\277V\220\225\333\212\235\340\277\300\262q\255\202\321\360\277a\264\340\272p\353\353\277\240q\023\262\353\320\362?\355;\314\254\377v\304\277\273y\036\360&\304\343?(j\re\213\005\350\277u\004\026s0\260\250\277T\362\343\032\302\230\271?$^\364o\351@\344\277IZ\\\024M\351\364\277\251`\341\342UY\355\277q\316\3654\307\211\000@n\220\201\222\037\221\347\277\355\000\311\025\231\002\353\277\257\306nhk\257\303\277F7\242\242y\024\316\277t9\006\213\222\345\272\277\370\275\370\363:\213\355\277;\264\020X\237<\010@i\237\264}\337\256\334\277\276\223\000\264u\264\367\277\355\000\311\025\231\002\353\277\332\365\243\341?\266\370\277\025\301\303\006\203D\335?\n\235x\'\235\366\321?\3275Z\r\200\324\364?\211\037\322\361\211K\303?\363\360Om\341o\336?QR\263\350pc\356\277\314o\241\213$Z\363\277\341\257Cn\371k\366?\027\3404\000\220a\326?;\264\020X\237<\010@f\223\233\210=\352\330\277\243\325\307\337\236\301\001@<\253\365\004X\214\322\277\266\325f\271\3009\340\2777<.\346S7\301?\203\204TT\022\300\352\277ha\3755u\352\360\277\346\255\223\224\356\004\332?;\264\020X\237<\010@\006_\2264\203\274\337?{\330\314\240\320(\361?\227\305<\364\336F\325\277*\360\231_\334\347\351\277\327\235Hb\325\236\263\277\271\001[\304\202\r\362\277\027\3404\000\220a\326?EaP\216`&\221?J\377}g\306e\335?_\032L)(\351\207\277\310\201\3271\263\272\316?\254\2261\345\342#\264\277\205$\205\206c\365\265?\235\360\306\342\215(\322\277\302nS\303\324\254\001@\241\374\337\327/\355\325\277\210\301\360\2114\205\345?\014\036v\354/\254\376?VP\251\3461\307d?\332\315\205\345]*\303\277\366\353\234\330\007\306\333\277\027\3404\000\220a\326?\230\326\010~Z\265\333?IZ\\\024M\351\364\277\001\341\223@\224\021\214\277\226\241\213\317\336\357\372?\364\303\361E\014\252\347?\335g\243\230\252 \247?u\004\026s0\260\250\277j\221\353\2562\203\374\277\272\341\177\256b\376\343\277\351\320lLi(\006@Ju\204\225\223N\300\277p\026\016\215ps\351\277H \237:\336\351\362?\260\r\376]ZX\362\277Q\302\246\2279\r\312?\214o(\027\201\203\333\277\207\317\271X\341\260\365\277\362\244\200L\377\214\356?\311\246\316\023\253\206\360\277i\244C\263\235\333\361\277g)=\023\204\315\003@&\344\200j:#\346\277\3076N\316\310L\346?V\220\225\333\212\235\340\277\314o\241\213$Z\363\277QR\263\350pc\356\277\221\257\211{#\356\241?\014\036v\354/\254\376?;\264\020X\237<\010@A\003\336\032\3343\346\277B\233|\\\240\371\345?\3130U|\367-\354\277s\216\321\270\024*\373?H\027\026\227$\370\363\277\014\013i}z\252\236\277\351m\335h\256\346\355?\006\331\345\332\026]\360\277t9\006\213\222\345\272\277"
      }
    }
  }
}
node {
  name: "tensors/component_3"
  op: "Const"
  device: "/device:CPU:0"
  attr {
    key: "_output_shapes"
    value {
      list {
        shape {
          dim {
            size: 1168
          }
        }
      }
    }
  }
  attr {
    key: "dtype"
    value {
      type: DT_DOUBLE
    }
  }
  attr {
    key: "value"
    value {
      tensor {
        dtype: DT_DOUBLE
        tensor_shape {
          dim {
            size: 1168
          }
        }
